-- begin_signature
-- sigmoid
-- end_signature
WIDTH=16;
DEPTH=4096;

ADDRESS_RADIX=UNS;
DATA_RADIX=BIN;

CONTENT BEGIN
	3410 :	1111111111111110;
	3409 :	1111111111111110;
	3408 :	1111111111111110;
	3407 :	1111111111111110;
	3406 :	1111111111111101;
	3405 :	1111111111111101;
	3404 :	1111111111111101;
	3403 :	1111111111111100;
	3402 :	1111111111111100;
	3401 :	1111111111111100;
	3400 :	1111111111111100;
	3399 :	1111111111111100;
	3398 :	1111111111111100;
	3397 :	1111111111111011;
	3396 :	1111111111111011;
	3395 :	1111111111111011;
	3394 :	1111111111111011;
	3393 :	1111111111111011;
	3392 :	1111111111111010;
	3391 :	1111111111111010;
	3390 :	1111111111111010;
	3389 :	1111111111111010;
	3388 :	1111111111111010;
	3387 :	1111111111111001;
	3386 :	1111111111111001;
	3385 :	1111111111111001;
	3384 :	1111111111111000;
	3383 :	1111111111111000;
	3382 :	1111111111111000;
	3381 :	1111111111110111;
	3380 :	1111111111110111;
	3379 :	1111111111110111;
	3378 :	1111111111110111;
	3377 :	1111111111110111;
	3376 :	1111111111110111;
	3375 :	1111111111110111;
	3374 :	1111111111110111;
	3373 :	1111111111110111;
	3372 :	1111111111110111;
	3371 :	1111111111110111;
	3370 :	1111111111110111;
	3369 :	1111111111110111;
	3368 :	1111111111110111;
	3367 :	1111111111110111;
	3366 :	1111111111110111;
	3365 :	1111111111110111;
	3364 :	1111111111110111;
	3363 :	1111111111110111;
	3362 :	1111111111110111;
	3361 :	1111111111110110;
	3360 :	1111111111110110;
	3359 :	1111111111110110;
	3358 :	1111111111110110;
	3357 :	1111111111110110;
	3356 :	1111111111110110;
	3355 :	1111111111110110;
	3354 :	1111111111110110;
	3353 :	1111111111110110;
	3352 :	1111111111110110;
	3351 :	1111111111110110;
	3350 :	1111111111110110;
	3349 :	1111111111110110;
	3348 :	1111111111110110;
	3347 :	1111111111110110;
	3346 :	1111111111110110;
	3345 :	1111111111110110;
	3344 :	1111111111110110;
	3343 :	1111111111110110;
	3342 :	1111111111110110;
	3341 :	1111111111110101;
	3340 :	1111111111110101;
	3339 :	1111111111110101;
	3338 :	1111111111110101;
	3337 :	1111111111110101;
	3336 :	1111111111110101;
	3335 :	1111111111110101;
	3334 :	1111111111110101;
	3333 :	1111111111110101;
	3332 :	1111111111110101;
	3331 :	1111111111110101;
	3330 :	1111111111110101;
	3329 :	1111111111110101;
	3328 :	1111111111110101;
	3327 :	1111111111110101;
	3326 :	1111111111110101;
	3325 :	1111111111110101;
	3324 :	1111111111110101;
	3323 :	1111111111110100;
	3322 :	1111111111110100;
	3321 :	1111111111110100;
	3320 :	1111111111110100;
	3319 :	1111111111110100;
	3318 :	1111111111110100;
	3317 :	1111111111110100;
	3316 :	1111111111110100;
	3315 :	1111111111110100;
	3314 :	1111111111110100;
	3313 :	1111111111110100;
	3312 :	1111111111110100;
	3311 :	1111111111110100;
	3310 :	1111111111110100;
	3309 :	1111111111110100;
	3308 :	1111111111110100;
	3307 :	1111111111110011;
	3306 :	1111111111110011;
	3305 :	1111111111110011;
	3304 :	1111111111110011;
	3303 :	1111111111110011;
	3302 :	1111111111110011;
	3301 :	1111111111110011;
	3300 :	1111111111110011;
	3299 :	1111111111110011;
	3298 :	1111111111110011;
	3297 :	1111111111110011;
	3296 :	1111111111110011;
	3295 :	1111111111110011;
	3294 :	1111111111110011;
	3293 :	1111111111110011;
	3292 :	1111111111110010;
	3291 :	1111111111110010;
	3290 :	1111111111110010;
	3289 :	1111111111110010;
	3288 :	1111111111110010;
	3287 :	1111111111110010;
	3286 :	1111111111110010;
	3285 :	1111111111110010;
	3284 :	1111111111110010;
	3283 :	1111111111110010;
	3282 :	1111111111110010;
	3281 :	1111111111110010;
	3280 :	1111111111110010;
	3279 :	1111111111110001;
	3278 :	1111111111110001;
	3277 :	1111111111110001;
	3276 :	1111111111110001;
	3275 :	1111111111110001;
	3274 :	1111111111110001;
	3273 :	1111111111110001;
	3272 :	1111111111110001;
	3271 :	1111111111110001;
	3270 :	1111111111110001;
	3269 :	1111111111110001;
	3268 :	1111111111110001;
	3267 :	1111111111110001;
	3266 :	1111111111110000;
	3265 :	1111111111110000;
	3264 :	1111111111110000;
	3263 :	1111111111110000;
	3262 :	1111111111110000;
	3261 :	1111111111110000;
	3260 :	1111111111110000;
	3259 :	1111111111110000;
	3258 :	1111111111110000;
	3257 :	1111111111110000;
	3256 :	1111111111110000;
	3255 :	1111111111110000;
	3254 :	1111111111101111;
	3253 :	1111111111101111;
	3252 :	1111111111101111;
	3251 :	1111111111101111;
	3250 :	1111111111101111;
	3249 :	1111111111101111;
	3248 :	1111111111101111;
	3247 :	1111111111101111;
	3246 :	1111111111101111;
	3245 :	1111111111101111;
	3244 :	1111111111101111;
	3243 :	1111111111101111;
	3242 :	1111111111101110;
	3241 :	1111111111101110;
	3240 :	1111111111101110;
	3239 :	1111111111101110;
	3238 :	1111111111101110;
	3237 :	1111111111101110;
	3236 :	1111111111101110;
	3235 :	1111111111101110;
	3234 :	1111111111101110;
	3233 :	1111111111101110;
	3232 :	1111111111101101;
	3231 :	1111111111101101;
	3230 :	1111111111101101;
	3229 :	1111111111101101;
	3228 :	1111111111101101;
	3227 :	1111111111101101;
	3226 :	1111111111101101;
	3225 :	1111111111101101;
	3224 :	1111111111101101;
	3223 :	1111111111101101;
	3222 :	1111111111101100;
	3221 :	1111111111101100;
	3220 :	1111111111101100;
	3219 :	1111111111101100;
	3218 :	1111111111101100;
	3217 :	1111111111101100;
	3216 :	1111111111101100;
	3215 :	1111111111101100;
	3214 :	1111111111101100;
	3213 :	1111111111101100;
	3212 :	1111111111101011;
	3211 :	1111111111101011;
	3210 :	1111111111101011;
	3209 :	1111111111101011;
	3208 :	1111111111101011;
	3207 :	1111111111101011;
	3206 :	1111111111101011;
	3205 :	1111111111101011;
	3204 :	1111111111101011;
	3203 :	1111111111101010;
	3202 :	1111111111101010;
	3201 :	1111111111101010;
	3200 :	1111111111101010;
	3199 :	1111111111101010;
	3198 :	1111111111101010;
	3197 :	1111111111101010;
	3196 :	1111111111101010;
	3195 :	1111111111101010;
	3194 :	1111111111101001;
	3193 :	1111111111101001;
	3192 :	1111111111101001;
	3191 :	1111111111101001;
	3190 :	1111111111101001;
	3189 :	1111111111101001;
	3188 :	1111111111101001;
	3187 :	1111111111101001;
	3186 :	1111111111101000;
	3185 :	1111111111101000;
	3184 :	1111111111101000;
	3183 :	1111111111101000;
	3182 :	1111111111101000;
	3181 :	1111111111101000;
	3180 :	1111111111101000;
	3179 :	1111111111101000;
	3178 :	1111111111100111;
	3177 :	1111111111100111;
	3176 :	1111111111100111;
	3175 :	1111111111100111;
	3174 :	1111111111100111;
	3173 :	1111111111100111;
	3172 :	1111111111100111;
	3171 :	1111111111100110;
	3170 :	1111111111100110;
	3169 :	1111111111100110;
	3168 :	1111111111100110;
	3167 :	1111111111100110;
	3166 :	1111111111100110;
	3165 :	1111111111100110;
	3164 :	1111111111100110;
	3163 :	1111111111100101;
	3162 :	1111111111100101;
	3161 :	1111111111100101;
	3160 :	1111111111100101;
	3159 :	1111111111100101;
	3158 :	1111111111100101;
	3157 :	1111111111100101;
	3156 :	1111111111100100;
	3155 :	1111111111100100;
	3154 :	1111111111100100;
	3153 :	1111111111100100;
	3152 :	1111111111100100;
	3151 :	1111111111100100;
	3150 :	1111111111100100;
	3149 :	1111111111100011;
	3148 :	1111111111100011;
	3147 :	1111111111100011;
	3146 :	1111111111100011;
	3145 :	1111111111100011;
	3144 :	1111111111100011;
	3143 :	1111111111100010;
	3142 :	1111111111100010;
	3141 :	1111111111100010;
	3140 :	1111111111100010;
	3139 :	1111111111100010;
	3138 :	1111111111100010;
	3137 :	1111111111100001;
	3136 :	1111111111100001;
	3135 :	1111111111100001;
	3134 :	1111111111100001;
	3133 :	1111111111100001;
	3132 :	1111111111100001;
	3131 :	1111111111100000;
	3130 :	1111111111100000;
	3129 :	1111111111100000;
	3128 :	1111111111100000;
	3127 :	1111111111100000;
	3126 :	1111111111100000;
	3125 :	1111111111011111;
	3124 :	1111111111011111;
	3123 :	1111111111011111;
	3122 :	1111111111011111;
	3121 :	1111111111011111;
	3120 :	1111111111011111;
	3119 :	1111111111011110;
	3118 :	1111111111011110;
	3117 :	1111111111011110;
	3116 :	1111111111011110;
	3115 :	1111111111011110;
	3114 :	1111111111011110;
	3113 :	1111111111011101;
	3112 :	1111111111011101;
	3111 :	1111111111011101;
	3110 :	1111111111011101;
	3109 :	1111111111011101;
	3108 :	1111111111011100;
	3107 :	1111111111011100;
	3106 :	1111111111011100;
	3105 :	1111111111011100;
	3104 :	1111111111011100;
	3103 :	1111111111011011;
	3102 :	1111111111011011;
	3101 :	1111111111011011;
	3100 :	1111111111011011;
	3099 :	1111111111011011;
	3098 :	1111111111011010;
	3097 :	1111111111011010;
	3096 :	1111111111011010;
	3095 :	1111111111011010;
	3094 :	1111111111011010;
	3093 :	1111111111011001;
	3092 :	1111111111011001;
	3091 :	1111111111011001;
	3090 :	1111111111011001;
	3089 :	1111111111011001;
	3088 :	1111111111011000;
	3087 :	1111111111011000;
	3086 :	1111111111011000;
	3085 :	1111111111011000;
	3084 :	1111111111011000;
	3083 :	1111111111010111;
	3082 :	1111111111010111;
	3081 :	1111111111010111;
	3080 :	1111111111010111;
	3079 :	1111111111010111;
	3078 :	1111111111010110;
	3077 :	1111111111010110;
	3076 :	1111111111010110;
	3075 :	1111111111010110;
	3074 :	1111111111010101;
	3073 :	1111111111010101;
	3072 :	1111111111010101;
	3071 :	1111111111010101;
	3070 :	1111111111010100;
	3069 :	1111111111010100;
	3068 :	1111111111010100;
	3067 :	1111111111010100;
	3066 :	1111111111010100;
	3065 :	1111111111010011;
	3064 :	1111111111010011;
	3063 :	1111111111010011;
	3062 :	1111111111010011;
	3061 :	1111111111010010;
	3060 :	1111111111010010;
	3059 :	1111111111010010;
	3058 :	1111111111010010;
	3057 :	1111111111010001;
	3056 :	1111111111010001;
	3055 :	1111111111010001;
	3054 :	1111111111010001;
	3053 :	1111111111010000;
	3052 :	1111111111010000;
	3051 :	1111111111010000;
	3050 :	1111111111010000;
	3049 :	1111111111001111;
	3048 :	1111111111001111;
	3047 :	1111111111001111;
	3046 :	1111111111001111;
	3045 :	1111111111001110;
	3044 :	1111111111001110;
	3043 :	1111111111001110;
	3042 :	1111111111001110;
	3041 :	1111111111001101;
	3040 :	1111111111001101;
	3039 :	1111111111001101;
	3038 :	1111111111001100;
	3037 :	1111111111001100;
	3036 :	1111111111001100;
	3035 :	1111111111001100;
	3034 :	1111111111001011;
	3033 :	1111111111001011;
	3032 :	1111111111001011;
	3031 :	1111111111001010;
	3030 :	1111111111001010;
	3029 :	1111111111001010;
	3028 :	1111111111001010;
	3027 :	1111111111001001;
	3026 :	1111111111001001;
	3025 :	1111111111001001;
	3024 :	1111111111001000;
	3023 :	1111111111001000;
	3022 :	1111111111001000;
	3021 :	1111111111001000;
	3020 :	1111111111000111;
	3019 :	1111111111000111;
	3018 :	1111111111000111;
	3017 :	1111111111000110;
	3016 :	1111111111000110;
	3015 :	1111111111000110;
	3014 :	1111111111000101;
	3013 :	1111111111000101;
	3012 :	1111111111000101;
	3011 :	1111111111000100;
	3010 :	1111111111000100;
	3009 :	1111111111000100;
	3008 :	1111111111000100;
	3007 :	1111111111000011;
	3006 :	1111111111000011;
	3005 :	1111111111000011;
	3004 :	1111111111000010;
	3003 :	1111111111000010;
	3002 :	1111111111000010;
	3001 :	1111111111000001;
	3000 :	1111111111000001;
	2999 :	1111111111000001;
	2998 :	1111111111000000;
	2997 :	1111111111000000;
	2996 :	1111111111000000;
	2995 :	1111111110111111;
	2994 :	1111111110111111;
	2993 :	1111111110111110;
	2992 :	1111111110111110;
	2991 :	1111111110111110;
	2990 :	1111111110111101;
	2989 :	1111111110111101;
	2988 :	1111111110111101;
	2987 :	1111111110111100;
	2986 :	1111111110111100;
	2985 :	1111111110111100;
	2984 :	1111111110111011;
	2983 :	1111111110111011;
	2982 :	1111111110111011;
	2981 :	1111111110111010;
	2980 :	1111111110111010;
	2979 :	1111111110111001;
	2978 :	1111111110111001;
	2977 :	1111111110111001;
	2976 :	1111111110111000;
	2975 :	1111111110111000;
	2974 :	1111111110110111;
	2973 :	1111111110110111;
	2972 :	1111111110110111;
	2971 :	1111111110110110;
	2970 :	1111111110110110;
	2969 :	1111111110110110;
	2968 :	1111111110110101;
	2967 :	1111111110110101;
	2966 :	1111111110110100;
	2965 :	1111111110110100;
	2964 :	1111111110110100;
	2963 :	1111111110110011;
	2962 :	1111111110110011;
	2961 :	1111111110110010;
	2960 :	1111111110110010;
	2959 :	1111111110110001;
	2958 :	1111111110110001;
	2957 :	1111111110110001;
	2956 :	1111111110110000;
	2955 :	1111111110110000;
	2954 :	1111111110101111;
	2953 :	1111111110101111;
	2952 :	1111111110101110;
	2951 :	1111111110101110;
	2950 :	1111111110101110;
	2949 :	1111111110101101;
	2948 :	1111111110101101;
	2947 :	1111111110101100;
	2946 :	1111111110101100;
	2945 :	1111111110101011;
	2944 :	1111111110101011;
	2943 :	1111111110101010;
	2942 :	1111111110101010;
	2941 :	1111111110101010;
	2940 :	1111111110101001;
	2939 :	1111111110101001;
	2938 :	1111111110101000;
	2937 :	1111111110101000;
	2936 :	1111111110100111;
	2935 :	1111111110100111;
	2934 :	1111111110100110;
	2933 :	1111111110100110;
	2932 :	1111111110100101;
	2931 :	1111111110100101;
	2930 :	1111111110100100;
	2929 :	1111111110100100;
	2928 :	1111111110100011;
	2927 :	1111111110100011;
	2926 :	1111111110100010;
	2925 :	1111111110100010;
	2924 :	1111111110100001;
	2923 :	1111111110100001;
	2922 :	1111111110100000;
	2921 :	1111111110100000;
	2920 :	1111111110011111;
	2919 :	1111111110011111;
	2918 :	1111111110011110;
	2917 :	1111111110011110;
	2916 :	1111111110011101;
	2915 :	1111111110011101;
	2914 :	1111111110011100;
	2913 :	1111111110011100;
	2912 :	1111111110011011;
	2911 :	1111111110011011;
	2910 :	1111111110011010;
	2909 :	1111111110011001;
	2908 :	1111111110011001;
	2907 :	1111111110011000;
	2906 :	1111111110011000;
	2905 :	1111111110010111;
	2904 :	1111111110010111;
	2903 :	1111111110010110;
	2902 :	1111111110010110;
	2901 :	1111111110010101;
	2900 :	1111111110010100;
	2899 :	1111111110010100;
	2898 :	1111111110010011;
	2897 :	1111111110010011;
	2896 :	1111111110010010;
	2895 :	1111111110010001;
	2894 :	1111111110010001;
	2893 :	1111111110010000;
	2892 :	1111111110010000;
	2891 :	1111111110001111;
	2890 :	1111111110001111;
	2889 :	1111111110001110;
	2888 :	1111111110001101;
	2887 :	1111111110001101;
	2886 :	1111111110001100;
	2885 :	1111111110001011;
	2884 :	1111111110001011;
	2883 :	1111111110001010;
	2882 :	1111111110001010;
	2881 :	1111111110001001;
	2880 :	1111111110001000;
	2879 :	1111111110001000;
	2878 :	1111111110000111;
	2877 :	1111111110000110;
	2876 :	1111111110000110;
	2875 :	1111111110000101;
	2874 :	1111111110000100;
	2873 :	1111111110000100;
	2872 :	1111111110000011;
	2871 :	1111111110000010;
	2870 :	1111111110000010;
	2869 :	1111111110000001;
	2868 :	1111111110000000;
	2867 :	1111111110000000;
	2866 :	1111111101111111;
	2865 :	1111111101111110;
	2864 :	1111111101111110;
	2863 :	1111111101111101;
	2862 :	1111111101111100;
	2861 :	1111111101111100;
	2860 :	1111111101111011;
	2859 :	1111111101111010;
	2858 :	1111111101111001;
	2857 :	1111111101111001;
	2856 :	1111111101111000;
	2855 :	1111111101110111;
	2854 :	1111111101110110;
	2853 :	1111111101110110;
	2852 :	1111111101110101;
	2851 :	1111111101110100;
	2850 :	1111111101110011;
	2849 :	1111111101110011;
	2848 :	1111111101110010;
	2847 :	1111111101110001;
	2846 :	1111111101110000;
	2845 :	1111111101110000;
	2844 :	1111111101101111;
	2843 :	1111111101101110;
	2842 :	1111111101101101;
	2841 :	1111111101101101;
	2840 :	1111111101101100;
	2839 :	1111111101101011;
	2838 :	1111111101101010;
	2837 :	1111111101101001;
	2836 :	1111111101101001;
	2835 :	1111111101101000;
	2834 :	1111111101100111;
	2833 :	1111111101100110;
	2832 :	1111111101100101;
	2831 :	1111111101100100;
	2830 :	1111111101100100;
	2829 :	1111111101100011;
	2828 :	1111111101100010;
	2827 :	1111111101100001;
	2826 :	1111111101100000;
	2825 :	1111111101011111;
	2824 :	1111111101011111;
	2823 :	1111111101011110;
	2822 :	1111111101011101;
	2821 :	1111111101011100;
	2820 :	1111111101011011;
	2819 :	1111111101011010;
	2818 :	1111111101011001;
	2817 :	1111111101011000;
	2816 :	1111111101011000;
	2815 :	1111111101010111;
	2814 :	1111111101010110;
	2813 :	1111111101010101;
	2812 :	1111111101010100;
	2811 :	1111111101010011;
	2810 :	1111111101010010;
	2809 :	1111111101010001;
	2808 :	1111111101010000;
	2807 :	1111111101001111;
	2806 :	1111111101001110;
	2805 :	1111111101001101;
	2804 :	1111111101001100;
	2803 :	1111111101001011;
	2802 :	1111111101001010;
	2801 :	1111111101001001;
	2800 :	1111111101001000;
	2799 :	1111111101000111;
	2798 :	1111111101000111;
	2797 :	1111111101000110;
	2796 :	1111111101000101;
	2795 :	1111111101000100;
	2794 :	1111111101000010;
	2793 :	1111111101000001;
	2792 :	1111111101000000;
	2791 :	1111111100111111;
	2790 :	1111111100111110;
	2789 :	1111111100111101;
	2788 :	1111111100111100;
	2787 :	1111111100111011;
	2786 :	1111111100111010;
	2785 :	1111111100111001;
	2784 :	1111111100111000;
	2783 :	1111111100110111;
	2782 :	1111111100110110;
	2781 :	1111111100110101;
	2780 :	1111111100110100;
	2779 :	1111111100110011;
	2778 :	1111111100110010;
	2777 :	1111111100110000;
	2776 :	1111111100101111;
	2775 :	1111111100101110;
	2774 :	1111111100101101;
	2773 :	1111111100101100;
	2772 :	1111111100101011;
	2771 :	1111111100101010;
	2770 :	1111111100101001;
	2769 :	1111111100100111;
	2768 :	1111111100100110;
	2767 :	1111111100100101;
	2766 :	1111111100100100;
	2765 :	1111111100100011;
	2764 :	1111111100100010;
	2763 :	1111111100100000;
	2762 :	1111111100011111;
	2761 :	1111111100011110;
	2760 :	1111111100011101;
	2759 :	1111111100011100;
	2758 :	1111111100011010;
	2757 :	1111111100011001;
	2756 :	1111111100011000;
	2755 :	1111111100010111;
	2754 :	1111111100010101;
	2753 :	1111111100010100;
	2752 :	1111111100010011;
	2751 :	1111111100010010;
	2750 :	1111111100010000;
	2749 :	1111111100001111;
	2748 :	1111111100001110;
	2747 :	1111111100001100;
	2746 :	1111111100001011;
	2745 :	1111111100001010;
	2744 :	1111111100001000;
	2743 :	1111111100000111;
	2742 :	1111111100000110;
	2741 :	1111111100000100;
	2740 :	1111111100000011;
	2739 :	1111111100000010;
	2738 :	1111111100000000;
	2737 :	1111111011111111;
	2736 :	1111111011111110;
	2735 :	1111111011111100;
	2734 :	1111111011111011;
	2733 :	1111111011111010;
	2732 :	1111111011111000;
	2731 :	1111111011110111;
	2730 :	1111111011110101;
	2729 :	1111111011110100;
	2728 :	1111111011110010;
	2727 :	1111111011110001;
	2726 :	1111111011110000;
	2725 :	1111111011101110;
	2724 :	1111111011101101;
	2723 :	1111111011101011;
	2722 :	1111111011101010;
	2721 :	1111111011101000;
	2720 :	1111111011100111;
	2719 :	1111111011100101;
	2718 :	1111111011100100;
	2717 :	1111111011100010;
	2716 :	1111111011100001;
	2715 :	1111111011011111;
	2714 :	1111111011011101;
	2713 :	1111111011011100;
	2712 :	1111111011011010;
	2711 :	1111111011011001;
	2710 :	1111111011010111;
	2709 :	1111111011010110;
	2708 :	1111111011010100;
	2707 :	1111111011010010;
	2706 :	1111111011010001;
	2705 :	1111111011001111;
	2704 :	1111111011001110;
	2703 :	1111111011001100;
	2702 :	1111111011001010;
	2701 :	1111111011001001;
	2700 :	1111111011000111;
	2699 :	1111111011000101;
	2698 :	1111111011000100;
	2697 :	1111111011000010;
	2696 :	1111111011000000;
	2695 :	1111111010111110;
	2694 :	1111111010111101;
	2693 :	1111111010111011;
	2692 :	1111111010111001;
	2691 :	1111111010111000;
	2690 :	1111111010110110;
	2689 :	1111111010110100;
	2688 :	1111111010110010;
	2687 :	1111111010110000;
	2686 :	1111111010101111;
	2685 :	1111111010101101;
	2684 :	1111111010101011;
	2683 :	1111111010101001;
	2682 :	1111111010100111;
	2681 :	1111111010100110;
	2680 :	1111111010100100;
	2679 :	1111111010100010;
	2678 :	1111111010100000;
	2677 :	1111111010011110;
	2676 :	1111111010011100;
	2675 :	1111111010011010;
	2674 :	1111111010011000;
	2673 :	1111111010010110;
	2672 :	1111111010010101;
	2671 :	1111111010010011;
	2670 :	1111111010010001;
	2669 :	1111111010001111;
	2668 :	1111111010001101;
	2667 :	1111111010001011;
	2666 :	1111111010001001;
	2665 :	1111111010000111;
	2664 :	1111111010000101;
	2663 :	1111111010000011;
	2662 :	1111111010000001;
	2661 :	1111111001111111;
	2660 :	1111111001111100;
	2659 :	1111111001111010;
	2658 :	1111111001111000;
	2657 :	1111111001110110;
	2656 :	1111111001110100;
	2655 :	1111111001110010;
	2654 :	1111111001110000;
	2653 :	1111111001101110;
	2652 :	1111111001101100;
	2651 :	1111111001101001;
	2650 :	1111111001100111;
	2649 :	1111111001100101;
	2648 :	1111111001100011;
	2647 :	1111111001100001;
	2646 :	1111111001011110;
	2645 :	1111111001011100;
	2644 :	1111111001011010;
	2643 :	1111111001011000;
	2642 :	1111111001010101;
	2641 :	1111111001010011;
	2640 :	1111111001010001;
	2639 :	1111111001001111;
	2638 :	1111111001001100;
	2637 :	1111111001001010;
	2636 :	1111111001001000;
	2635 :	1111111001000101;
	2634 :	1111111001000011;
	2633 :	1111111001000000;
	2632 :	1111111000111110;
	2631 :	1111111000111100;
	2630 :	1111111000111001;
	2629 :	1111111000110111;
	2628 :	1111111000110100;
	2627 :	1111111000110010;
	2626 :	1111111000101111;
	2625 :	1111111000101101;
	2624 :	1111111000101011;
	2623 :	1111111000101000;
	2622 :	1111111000100101;
	2621 :	1111111000100011;
	2620 :	1111111000100000;
	2619 :	1111111000011110;
	2618 :	1111111000011011;
	2617 :	1111111000011001;
	2616 :	1111111000010110;
	2615 :	1111111000010011;
	2614 :	1111111000010001;
	2613 :	1111111000001110;
	2612 :	1111111000001100;
	2611 :	1111111000001001;
	2610 :	1111111000000110;
	2609 :	1111111000000011;
	2608 :	1111111000000001;
	2607 :	1111110111111110;
	2606 :	1111110111111011;
	2605 :	1111110111111001;
	2604 :	1111110111110110;
	2603 :	1111110111110011;
	2602 :	1111110111110000;
	2601 :	1111110111101101;
	2600 :	1111110111101011;
	2599 :	1111110111101000;
	2598 :	1111110111100101;
	2597 :	1111110111100010;
	2596 :	1111110111011111;
	2595 :	1111110111011100;
	2594 :	1111110111011001;
	2593 :	1111110111010110;
	2592 :	1111110111010011;
	2591 :	1111110111010000;
	2590 :	1111110111001101;
	2589 :	1111110111001010;
	2588 :	1111110111000111;
	2587 :	1111110111000100;
	2586 :	1111110111000001;
	2585 :	1111110110111110;
	2584 :	1111110110111011;
	2583 :	1111110110111000;
	2582 :	1111110110110101;
	2581 :	1111110110110010;
	2580 :	1111110110101111;
	2579 :	1111110110101011;
	2578 :	1111110110101000;
	2577 :	1111110110100101;
	2576 :	1111110110100010;
	2575 :	1111110110011111;
	2574 :	1111110110011011;
	2573 :	1111110110011000;
	2572 :	1111110110010101;
	2571 :	1111110110010010;
	2570 :	1111110110001110;
	2569 :	1111110110001011;
	2568 :	1111110110001000;
	2567 :	1111110110000100;
	2566 :	1111110110000001;
	2565 :	1111110101111101;
	2564 :	1111110101111010;
	2563 :	1111110101110111;
	2562 :	1111110101110011;
	2561 :	1111110101110000;
	2560 :	1111110101101100;
	2559 :	1111110101101001;
	2558 :	1111110101100101;
	2557 :	1111110101100001;
	2556 :	1111110101011110;
	2555 :	1111110101011010;
	2554 :	1111110101010111;
	2553 :	1111110101010011;
	2552 :	1111110101001111;
	2551 :	1111110101001100;
	2550 :	1111110101001000;
	2549 :	1111110101000100;
	2548 :	1111110101000001;
	2547 :	1111110100111101;
	2546 :	1111110100111001;
	2545 :	1111110100110101;
	2544 :	1111110100110010;
	2543 :	1111110100101110;
	2542 :	1111110100101010;
	2541 :	1111110100100110;
	2540 :	1111110100100010;
	2539 :	1111110100011110;
	2538 :	1111110100011010;
	2537 :	1111110100010110;
	2536 :	1111110100010010;
	2535 :	1111110100001110;
	2534 :	1111110100001010;
	2533 :	1111110100000110;
	2532 :	1111110100000010;
	2531 :	1111110011111110;
	2530 :	1111110011111010;
	2529 :	1111110011110110;
	2528 :	1111110011110010;
	2527 :	1111110011101110;
	2526 :	1111110011101010;
	2525 :	1111110011100101;
	2524 :	1111110011100001;
	2523 :	1111110011011101;
	2522 :	1111110011011001;
	2521 :	1111110011010100;
	2520 :	1111110011010000;
	2519 :	1111110011001100;
	2518 :	1111110011000111;
	2517 :	1111110011000011;
	2516 :	1111110010111111;
	2515 :	1111110010111010;
	2514 :	1111110010110110;
	2513 :	1111110010110001;
	2512 :	1111110010101101;
	2511 :	1111110010101000;
	2510 :	1111110010100100;
	2509 :	1111110010011111;
	2508 :	1111110010011010;
	2507 :	1111110010010110;
	2506 :	1111110010010001;
	2505 :	1111110010001100;
	2504 :	1111110010001000;
	2503 :	1111110010000011;
	2502 :	1111110001111110;
	2501 :	1111110001111010;
	2500 :	1111110001110101;
	2499 :	1111110001110000;
	2498 :	1111110001101011;
	2497 :	1111110001100110;
	2496 :	1111110001100001;
	2495 :	1111110001011100;
	2494 :	1111110001011000;
	2493 :	1111110001010011;
	2492 :	1111110001001110;
	2491 :	1111110001001001;
	2490 :	1111110001000011;
	2489 :	1111110000111110;
	2488 :	1111110000111001;
	2487 :	1111110000110100;
	2486 :	1111110000101111;
	2485 :	1111110000101010;
	2484 :	1111110000100101;
	2483 :	1111110000011111;
	2482 :	1111110000011010;
	2481 :	1111110000010101;
	2480 :	1111110000010000;
	2479 :	1111110000001010;
	2478 :	1111110000000101;
	2477 :	1111101111111111;
	2476 :	1111101111111010;
	2475 :	1111101111110101;
	2474 :	1111101111101111;
	2473 :	1111101111101010;
	2472 :	1111101111100100;
	2471 :	1111101111011110;
	2470 :	1111101111011001;
	2469 :	1111101111010011;
	2468 :	1111101111001110;
	2467 :	1111101111001000;
	2466 :	1111101111000010;
	2465 :	1111101110111100;
	2464 :	1111101110110111;
	2463 :	1111101110110001;
	2462 :	1111101110101011;
	2461 :	1111101110100101;
	2460 :	1111101110011111;
	2459 :	1111101110011001;
	2458 :	1111101110010011;
	2457 :	1111101110001101;
	2456 :	1111101110000111;
	2455 :	1111101110000001;
	2454 :	1111101101111011;
	2453 :	1111101101110101;
	2452 :	1111101101101111;
	2451 :	1111101101101001;
	2450 :	1111101101100010;
	2449 :	1111101101011100;
	2448 :	1111101101010110;
	2447 :	1111101101010000;
	2446 :	1111101101001001;
	2445 :	1111101101000011;
	2444 :	1111101100111101;
	2443 :	1111101100110110;
	2442 :	1111101100110000;
	2441 :	1111101100101001;
	2440 :	1111101100100011;
	2439 :	1111101100011100;
	2438 :	1111101100010101;
	2437 :	1111101100001111;
	2436 :	1111101100001000;
	2435 :	1111101100000001;
	2434 :	1111101011111011;
	2433 :	1111101011110100;
	2432 :	1111101011101101;
	2431 :	1111101011100110;
	2430 :	1111101011011111;
	2429 :	1111101011011000;
	2428 :	1111101011010001;
	2427 :	1111101011001010;
	2426 :	1111101011000011;
	2425 :	1111101010111100;
	2424 :	1111101010110101;
	2423 :	1111101010101110;
	2422 :	1111101010100111;
	2421 :	1111101010100000;
	2420 :	1111101010011000;
	2419 :	1111101010010001;
	2418 :	1111101010001010;
	2417 :	1111101010000010;
	2416 :	1111101001111011;
	2415 :	1111101001110100;
	2414 :	1111101001101100;
	2413 :	1111101001100101;
	2412 :	1111101001011101;
	2411 :	1111101001010101;
	2410 :	1111101001001110;
	2409 :	1111101001000110;
	2408 :	1111101000111110;
	2407 :	1111101000110111;
	2406 :	1111101000101111;
	2405 :	1111101000100111;
	2404 :	1111101000011111;
	2403 :	1111101000010111;
	2402 :	1111101000001111;
	2401 :	1111101000000111;
	2400 :	1111100111111111;
	2399 :	1111100111110111;
	2398 :	1111100111101111;
	2397 :	1111100111100111;
	2396 :	1111100111011111;
	2395 :	1111100111010110;
	2394 :	1111100111001110;
	2393 :	1111100111000110;
	2392 :	1111100110111101;
	2391 :	1111100110110101;
	2390 :	1111100110101100;
	2389 :	1111100110100100;
	2388 :	1111100110011011;
	2387 :	1111100110010011;
	2386 :	1111100110001010;
	2385 :	1111100110000010;
	2384 :	1111100101111001;
	2383 :	1111100101110000;
	2382 :	1111100101100111;
	2381 :	1111100101011110;
	2380 :	1111100101010101;
	2379 :	1111100101001101;
	2378 :	1111100101000100;
	2377 :	1111100100111011;
	2376 :	1111100100110001;
	2375 :	1111100100101000;
	2374 :	1111100100011111;
	2373 :	1111100100010110;
	2372 :	1111100100001101;
	2371 :	1111100100000011;
	2370 :	1111100011111010;
	2369 :	1111100011110001;
	2368 :	1111100011100111;
	2367 :	1111100011011110;
	2366 :	1111100011010100;
	2365 :	1111100011001010;
	2364 :	1111100011000001;
	2363 :	1111100010110111;
	2362 :	1111100010101101;
	2361 :	1111100010100011;
	2360 :	1111100010011010;
	2359 :	1111100010010000;
	2358 :	1111100010000110;
	2357 :	1111100001111100;
	2356 :	1111100001110010;
	2355 :	1111100001101000;
	2354 :	1111100001011101;
	2353 :	1111100001010011;
	2352 :	1111100001001001;
	2351 :	1111100000111111;
	2350 :	1111100000110100;
	2349 :	1111100000101010;
	2348 :	1111100000011111;
	2347 :	1111100000010101;
	2346 :	1111100000001010;
	2345 :	1111100000000000;
	2344 :	1111011111110101;
	2343 :	1111011111101010;
	2342 :	1111011111011111;
	2341 :	1111011111010101;
	2340 :	1111011111001010;
	2339 :	1111011110111111;
	2338 :	1111011110110100;
	2337 :	1111011110101001;
	2336 :	1111011110011110;
	2335 :	1111011110010010;
	2334 :	1111011110000111;
	2333 :	1111011101111100;
	2332 :	1111011101110001;
	2331 :	1111011101100101;
	2330 :	1111011101011010;
	2329 :	1111011101001110;
	2328 :	1111011101000011;
	2327 :	1111011100110111;
	2326 :	1111011100101011;
	2325 :	1111011100011111;
	2324 :	1111011100010100;
	2323 :	1111011100001000;
	2322 :	1111011011111100;
	2321 :	1111011011110000;
	2320 :	1111011011100100;
	2319 :	1111011011011000;
	2318 :	1111011011001100;
	2317 :	1111011010111111;
	2316 :	1111011010110011;
	2315 :	1111011010100111;
	2314 :	1111011010011010;
	2313 :	1111011010001110;
	2312 :	1111011010000001;
	2311 :	1111011001110101;
	2310 :	1111011001101000;
	2309 :	1111011001011011;
	2308 :	1111011001001110;
	2307 :	1111011001000010;
	2306 :	1111011000110101;
	2305 :	1111011000101000;
	2304 :	1111011000011011;
	2303 :	1111011000001110;
	2302 :	1111011000000000;
	2301 :	1111010111110011;
	2300 :	1111010111100110;
	2299 :	1111010111011000;
	2298 :	1111010111001011;
	2297 :	1111010110111110;
	2296 :	1111010110110000;
	2295 :	1111010110100010;
	2294 :	1111010110010101;
	2293 :	1111010110000111;
	2292 :	1111010101111001;
	2291 :	1111010101101011;
	2290 :	1111010101011101;
	2289 :	1111010101001111;
	2288 :	1111010101000001;
	2287 :	1111010100110011;
	2286 :	1111010100100101;
	2285 :	1111010100010110;
	2284 :	1111010100001000;
	2283 :	1111010011111001;
	2282 :	1111010011101011;
	2281 :	1111010011011100;
	2280 :	1111010011001101;
	2279 :	1111010010111111;
	2278 :	1111010010110000;
	2277 :	1111010010100001;
	2276 :	1111010010010010;
	2275 :	1111010010000011;
	2274 :	1111010001110100;
	2273 :	1111010001100101;
	2272 :	1111010001010101;
	2271 :	1111010001000110;
	2270 :	1111010000110111;
	2269 :	1111010000100111;
	2268 :	1111010000011000;
	2267 :	1111010000001000;
	2266 :	1111001111111000;
	2265 :	1111001111101000;
	2264 :	1111001111011000;
	2263 :	1111001111001001;
	2262 :	1111001110111000;
	2261 :	1111001110101000;
	2260 :	1111001110011000;
	2259 :	1111001110001000;
	2258 :	1111001101111000;
	2257 :	1111001101100111;
	2256 :	1111001101010111;
	2255 :	1111001101000110;
	2254 :	1111001100110101;
	2253 :	1111001100100101;
	2252 :	1111001100010100;
	2251 :	1111001100000011;
	2250 :	1111001011110010;
	2249 :	1111001011100001;
	2248 :	1111001011010000;
	2247 :	1111001010111110;
	2246 :	1111001010101101;
	2245 :	1111001010011100;
	2244 :	1111001010001010;
	2243 :	1111001001111001;
	2242 :	1111001001100111;
	2241 :	1111001001010101;
	2240 :	1111001001000011;
	2239 :	1111001000110010;
	2238 :	1111001000100000;
	2237 :	1111001000001101;
	2236 :	1111000111111011;
	2235 :	1111000111101001;
	2234 :	1111000111010111;
	2233 :	1111000111000100;
	2232 :	1111000110110010;
	2231 :	1111000110011111;
	2230 :	1111000110001100;
	2229 :	1111000101111010;
	2228 :	1111000101100111;
	2227 :	1111000101010100;
	2226 :	1111000101000001;
	2225 :	1111000100101110;
	2224 :	1111000100011010;
	2223 :	1111000100000111;
	2222 :	1111000011110011;
	2221 :	1111000011100000;
	2220 :	1111000011001100;
	2219 :	1111000010111001;
	2218 :	1111000010100101;
	2217 :	1111000010010001;
	2216 :	1111000001111101;
	2215 :	1111000001101001;
	2214 :	1111000001010101;
	2213 :	1111000001000000;
	2212 :	1111000000101100;
	2211 :	1111000000011000;
	2210 :	1111000000000011;
	2209 :	1110111111101110;
	2208 :	1110111111011010;
	2207 :	1110111111000101;
	2206 :	1110111110110000;
	2205 :	1110111110011011;
	2204 :	1110111110000110;
	2203 :	1110111101110000;
	2202 :	1110111101011011;
	2201 :	1110111101000110;
	2200 :	1110111100110000;
	2199 :	1110111100011010;
	2198 :	1110111100000101;
	2197 :	1110111011101111;
	2196 :	1110111011011001;
	2195 :	1110111011000011;
	2194 :	1110111010101101;
	2193 :	1110111010010110;
	2192 :	1110111010000000;
	2191 :	1110111001101010;
	2190 :	1110111001010011;
	2189 :	1110111000111100;
	2188 :	1110111000100110;
	2187 :	1110111000001111;
	2186 :	1110110111111000;
	2185 :	1110110111100001;
	2184 :	1110110111001001;
	2183 :	1110110110110010;
	2182 :	1110110110011011;
	2181 :	1110110110000011;
	2180 :	1110110101101011;
	2179 :	1110110101010100;
	2178 :	1110110100111100;
	2177 :	1110110100100100;
	2176 :	1110110100001100;
	2175 :	1110110011110100;
	2174 :	1110110011011011;
	2173 :	1110110011000011;
	2172 :	1110110010101010;
	2171 :	1110110010010010;
	2170 :	1110110001111001;
	2169 :	1110110001100000;
	2168 :	1110110001000111;
	2167 :	1110110000101110;
	2166 :	1110110000010101;
	2165 :	1110101111111100;
	2164 :	1110101111100010;
	2163 :	1110101111001001;
	2162 :	1110101110101111;
	2161 :	1110101110010101;
	2160 :	1110101101111011;
	2159 :	1110101101100001;
	2158 :	1110101101000111;
	2157 :	1110101100101101;
	2156 :	1110101100010011;
	2155 :	1110101011111000;
	2154 :	1110101011011110;
	2153 :	1110101011000011;
	2152 :	1110101010101000;
	2151 :	1110101010001101;
	2150 :	1110101001110010;
	2149 :	1110101001010111;
	2148 :	1110101000111011;
	2147 :	1110101000100000;
	2146 :	1110101000000100;
	2145 :	1110100111101001;
	2144 :	1110100111001101;
	2143 :	1110100110110001;
	2142 :	1110100110010101;
	2141 :	1110100101111001;
	2140 :	1110100101011100;
	2139 :	1110100101000000;
	2138 :	1110100100100011;
	2137 :	1110100100000111;
	2136 :	1110100011101010;
	2135 :	1110100011001101;
	2134 :	1110100010110000;
	2133 :	1110100010010011;
	2132 :	1110100001110101;
	2131 :	1110100001011000;
	2130 :	1110100000111010;
	2129 :	1110100000011101;
	2128 :	1110011111111111;
	2127 :	1110011111100001;
	2126 :	1110011111000011;
	2125 :	1110011110100100;
	2124 :	1110011110000110;
	2123 :	1110011101101000;
	2122 :	1110011101001001;
	2121 :	1110011100101010;
	2120 :	1110011100001011;
	2119 :	1110011011101100;
	2118 :	1110011011001101;
	2117 :	1110011010101110;
	2116 :	1110011010001110;
	2115 :	1110011001101111;
	2114 :	1110011001001111;
	2113 :	1110011000101111;
	2112 :	1110011000001111;
	2111 :	1110010111101111;
	2110 :	1110010111001111;
	2109 :	1110010110101110;
	2108 :	1110010110001110;
	2107 :	1110010101101101;
	2106 :	1110010101001100;
	2105 :	1110010100101011;
	2104 :	1110010100001010;
	2103 :	1110010011101001;
	2102 :	1110010011001000;
	2101 :	1110010010100110;
	2100 :	1110010010000101;
	2099 :	1110010001100011;
	2098 :	1110010001000001;
	2097 :	1110010000011111;
	2096 :	1110001111111101;
	2095 :	1110001111011010;
	2094 :	1110001110111000;
	2093 :	1110001110010101;
	2092 :	1110001101110010;
	2091 :	1110001101001111;
	2090 :	1110001100101100;
	2089 :	1110001100001001;
	2088 :	1110001011100101;
	2087 :	1110001011000010;
	2086 :	1110001010011110;
	2085 :	1110001001111010;
	2084 :	1110001001010110;
	2083 :	1110001000110010;
	2082 :	1110001000001110;
	2081 :	1110000111101010;
	2080 :	1110000111000101;
	2079 :	1110000110100000;
	2078 :	1110000101111011;
	2077 :	1110000101010110;
	2076 :	1110000100110001;
	2075 :	1110000100001100;
	2074 :	1110000011100110;
	2073 :	1110000011000001;
	2072 :	1110000010011011;
	2071 :	1110000001110101;
	2070 :	1110000001001111;
	2069 :	1110000000101001;
	2068 :	1110000000000010;
	2067 :	1101111111011100;
	2066 :	1101111110110101;
	2065 :	1101111110001110;
	2064 :	1101111101100111;
	2063 :	1101111101000000;
	2062 :	1101111100011000;
	2061 :	1101111011110001;
	2060 :	1101111011001001;
	2059 :	1101111010100001;
	2058 :	1101111001111001;
	2057 :	1101111001010001;
	2056 :	1101111000101001;
	2055 :	1101111000000001;
	2054 :	1101110111011000;
	2053 :	1101110110101111;
	2052 :	1101110110000110;
	2051 :	1101110101011101;
	2050 :	1101110100110100;
	2049 :	1101110100001010;
	2048 :	1101110011100001;
	2047 :	1101110010110111;
	2046 :	1101110010001101;
	2045 :	1101110001100011;
	2044 :	1101110000111001;
	2043 :	1101110000001111;
	2042 :	1101101111100100;
	2041 :	1101101110111001;
	2040 :	1101101110001110;
	2039 :	1101101101100011;
	2038 :	1101101100111000;
	2037 :	1101101100001101;
	2036 :	1101101011100001;
	2035 :	1101101010110101;
	2034 :	1101101010001001;
	2033 :	1101101001011101;
	2032 :	1101101000110001;
	2031 :	1101101000000101;
	2030 :	1101100111011000;
	2029 :	1101100110101100;
	2028 :	1101100101111111;
	2027 :	1101100101010010;
	2026 :	1101100100100100;
	2025 :	1101100011110111;
	2024 :	1101100011001001;
	2023 :	1101100010011100;
	2022 :	1101100001101110;
	2021 :	1101100001000000;
	2020 :	1101100000010001;
	2019 :	1101011111100011;
	2018 :	1101011110110100;
	2017 :	1101011110000110;
	2016 :	1101011101010111;
	2015 :	1101011100101000;
	2014 :	1101011011111000;
	2013 :	1101011011001001;
	2012 :	1101011010011001;
	2011 :	1101011001101001;
	2010 :	1101011000111001;
	2009 :	1101011000001001;
	2008 :	1101010111011001;
	2007 :	1101010110101000;
	2006 :	1101010101111000;
	2005 :	1101010101000111;
	2004 :	1101010100010110;
	2003 :	1101010011100101;
	2002 :	1101010010110011;
	2001 :	1101010010000010;
	2000 :	1101010001010000;
	1999 :	1101010000011110;
	1998 :	1101001111101100;
	1997 :	1101001110111010;
	1996 :	1101001110000111;
	1995 :	1101001101010101;
	1994 :	1101001100100010;
	1993 :	1101001011101111;
	1992 :	1101001010111100;
	1991 :	1101001010001000;
	1990 :	1101001001010101;
	1989 :	1101001000100001;
	1988 :	1101000111101101;
	1987 :	1101000110111001;
	1986 :	1101000110000101;
	1985 :	1101000101010001;
	1984 :	1101000100011100;
	1983 :	1101000011100111;
	1982 :	1101000010110011;
	1981 :	1101000001111101;
	1980 :	1101000001001000;
	1979 :	1101000000010011;
	1978 :	1100111111011101;
	1977 :	1100111110100111;
	1976 :	1100111101110001;
	1975 :	1100111100111011;
	1974 :	1100111100000101;
	1973 :	1100111011001110;
	1972 :	1100111010010111;
	1971 :	1100111001100000;
	1970 :	1100111000101001;
	1969 :	1100110111110010;
	1968 :	1100110110111011;
	1967 :	1100110110000011;
	1966 :	1100110101001011;
	1965 :	1100110100010011;
	1964 :	1100110011011011;
	1963 :	1100110010100011;
	1962 :	1100110001101010;
	1961 :	1100110000110001;
	1960 :	1100101111111000;
	1959 :	1100101110111111;
	1958 :	1100101110000110;
	1957 :	1100101101001101;
	1956 :	1100101100010011;
	1955 :	1100101011011001;
	1954 :	1100101010011111;
	1953 :	1100101001100101;
	1952 :	1100101000101011;
	1951 :	1100100111110000;
	1950 :	1100100110110101;
	1949 :	1100100101111010;
	1948 :	1100100100111111;
	1947 :	1100100100000100;
	1946 :	1100100011001001;
	1945 :	1100100010001101;
	1944 :	1100100001010001;
	1943 :	1100100000010101;
	1942 :	1100011111011001;
	1941 :	1100011110011101;
	1940 :	1100011101100000;
	1939 :	1100011100100011;
	1938 :	1100011011100110;
	1937 :	1100011010101001;
	1936 :	1100011001101100;
	1935 :	1100011000101111;
	1934 :	1100010111110001;
	1933 :	1100010110110011;
	1932 :	1100010101110101;
	1931 :	1100010100110111;
	1930 :	1100010011111001;
	1929 :	1100010010111010;
	1928 :	1100010001111011;
	1927 :	1100010000111100;
	1926 :	1100001111111101;
	1925 :	1100001110111110;
	1924 :	1100001101111111;
	1923 :	1100001100111111;
	1922 :	1100001011111111;
	1921 :	1100001010111111;
	1920 :	1100001001111111;
	1919 :	1100001000111111;
	1918 :	1100000111111110;
	1917 :	1100000110111110;
	1916 :	1100000101111101;
	1915 :	1100000100111100;
	1914 :	1100000011111010;
	1913 :	1100000010111001;
	1912 :	1100000001110111;
	1911 :	1100000000110110;
	1910 :	1011111111110100;
	1909 :	1011111110110010;
	1908 :	1011111101101111;
	1907 :	1011111100101101;
	1906 :	1011111011101010;
	1905 :	1011111010100111;
	1904 :	1011111001100100;
	1903 :	1011111000100001;
	1902 :	1011110111011110;
	1901 :	1011110110011010;
	1900 :	1011110101010111;
	1899 :	1011110100010011;
	1898 :	1011110011001111;
	1897 :	1011110010001010;
	1896 :	1011110001000110;
	1895 :	1011110000000001;
	1894 :	1011101110111101;
	1893 :	1011101101111000;
	1892 :	1011101100110011;
	1891 :	1011101011101101;
	1890 :	1011101010101000;
	1889 :	1011101001100010;
	1888 :	1011101000011101;
	1887 :	1011100111010111;
	1886 :	1011100110010001;
	1885 :	1011100101001010;
	1884 :	1011100100000100;
	1883 :	1011100010111101;
	1882 :	1011100001110110;
	1881 :	1011100000101111;
	1880 :	1011011111101000;
	1879 :	1011011110100001;
	1878 :	1011011101011010;
	1877 :	1011011100010010;
	1876 :	1011011011001010;
	1875 :	1011011010000010;
	1874 :	1011011000111010;
	1873 :	1011010111110010;
	1872 :	1011010110101001;
	1871 :	1011010101100001;
	1870 :	1011010100011000;
	1869 :	1011010011001111;
	1868 :	1011010010000110;
	1867 :	1011010000111101;
	1866 :	1011001111110011;
	1865 :	1011001110101010;
	1864 :	1011001101100000;
	1863 :	1011001100010110;
	1862 :	1011001011001100;
	1861 :	1011001010000010;
	1860 :	1011001000110111;
	1859 :	1011000111101101;
	1858 :	1011000110100010;
	1857 :	1011000101010111;
	1856 :	1011000100001100;
	1855 :	1011000011000001;
	1854 :	1011000001110110;
	1853 :	1011000000101010;
	1852 :	1010111111011111;
	1851 :	1010111110010011;
	1850 :	1010111101000111;
	1849 :	1010111011111011;
	1848 :	1010111010101111;
	1847 :	1010111001100010;
	1846 :	1010111000010110;
	1845 :	1010110111001001;
	1844 :	1010110101111100;
	1843 :	1010110100101111;
	1842 :	1010110011100010;
	1841 :	1010110010010101;
	1840 :	1010110001001000;
	1839 :	1010101111111010;
	1838 :	1010101110101100;
	1837 :	1010101101011111;
	1836 :	1010101100010001;
	1835 :	1010101011000010;
	1834 :	1010101001110100;
	1833 :	1010101000100110;
	1832 :	1010100111010111;
	1831 :	1010100110001001;
	1830 :	1010100100111010;
	1829 :	1010100011101011;
	1828 :	1010100010011100;
	1827 :	1010100001001101;
	1826 :	1010011111111101;
	1825 :	1010011110101110;
	1824 :	1010011101011110;
	1823 :	1010011100001110;
	1822 :	1010011010111111;
	1821 :	1010011001101111;
	1820 :	1010011000011110;
	1819 :	1010010111001110;
	1818 :	1010010101111110;
	1817 :	1010010100101101;
	1816 :	1010010011011101;
	1815 :	1010010010001100;
	1814 :	1010010000111011;
	1813 :	1010001111101010;
	1812 :	1010001110011001;
	1811 :	1010001101001000;
	1810 :	1010001011110110;
	1809 :	1010001010100101;
	1808 :	1010001001010011;
	1807 :	1010001000000001;
	1806 :	1010000110110000;
	1805 :	1010000101011110;
	1804 :	1010000100001100;
	1803 :	1010000010111001;
	1802 :	1010000001100111;
	1801 :	1010000000010101;
	1800 :	1001111111000010;
	1799 :	1001111101101111;
	1798 :	1001111100011101;
	1797 :	1001111011001010;
	1796 :	1001111001110111;
	1795 :	1001111000100100;
	1794 :	1001110111010001;
	1793 :	1001110101111101;
	1792 :	1001110100101010;
	1791 :	1001110011010111;
	1790 :	1001110010000011;
	1789 :	1001110000101111;
	1788 :	1001101111011011;
	1787 :	1001101110001000;
	1786 :	1001101100110100;
	1785 :	1001101011100000;
	1784 :	1001101010001011;
	1783 :	1001101000110111;
	1782 :	1001100111100011;
	1781 :	1001100110001110;
	1780 :	1001100100111010;
	1779 :	1001100011100101;
	1778 :	1001100010010000;
	1777 :	1001100000111100;
	1776 :	1001011111100111;
	1775 :	1001011110010010;
	1774 :	1001011100111101;
	1773 :	1001011011101000;
	1772 :	1001011010010010;
	1771 :	1001011000111101;
	1770 :	1001010111101000;
	1769 :	1001010110010010;
	1768 :	1001010100111101;
	1767 :	1001010011100111;
	1766 :	1001010010010001;
	1765 :	1001010000111100;
	1764 :	1001001111100110;
	1763 :	1001001110010000;
	1762 :	1001001100111010;
	1761 :	1001001011100100;
	1760 :	1001001010001110;
	1759 :	1001001000111000;
	1758 :	1001000111100001;
	1757 :	1001000110001011;
	1756 :	1001000100110101;
	1755 :	1001000011011110;
	1754 :	1001000010001000;
	1753 :	1001000000110001;
	1752 :	1000111111011010;
	1751 :	1000111110000100;
	1750 :	1000111100101101;
	1749 :	1000111011010110;
	1748 :	1000111001111111;
	1747 :	1000111000101001;
	1746 :	1000110111010010;
	1745 :	1000110101111011;
	1744 :	1000110100100100;
	1743 :	1000110011001100;
	1742 :	1000110001110101;
	1741 :	1000110000011110;
	1740 :	1000101111000111;
	1739 :	1000101101110000;
	1738 :	1000101100011000;
	1737 :	1000101011000001;
	1736 :	1000101001101010;
	1735 :	1000101000010010;
	1734 :	1000100110111011;
	1733 :	1000100101100011;
	1732 :	1000100100001100;
	1731 :	1000100010110100;
	1730 :	1000100001011100;
	1729 :	1000100000000101;
	1728 :	1000011110101101;
	1727 :	1000011101010101;
	1726 :	1000011011111110;
	1725 :	1000011010100110;
	1724 :	1000011001001110;
	1723 :	1000010111110110;
	1722 :	1000010110011110;
	1721 :	1000010101000111;
	1720 :	1000010011101111;
	1719 :	1000010010010111;
	1718 :	1000010000111111;
	1717 :	1000001111100111;
	1716 :	1000001110001111;
	1715 :	1000001100110111;
	1714 :	1000001011011111;
	1713 :	1000001010000111;
	1712 :	1000001000101111;
	1711 :	1000000111010111;
	1710 :	1000000101111111;
	1709 :	1000000100100111;
	1708 :	1000000011001111;
	1707 :	1000000001110111;
	1706 :	1000000000011111;
	1705 :	0111111111000111;
	1704 :	0111111101101111;
	1703 :	0111111100010111;
	1702 :	0111111010111111;
	1701 :	0111111001100111;
	1700 :	0111111000001111;
	1699 :	0111110110110111;
	1698 :	0111110101100000;
	1697 :	0111110100001000;
	1696 :	0111110010110000;
	1695 :	0111110001011000;
	1694 :	0111110000000000;
	1693 :	0111101110101000;
	1692 :	0111101101010000;
	1691 :	0111101011111000;
	1690 :	0111101010100000;
	1689 :	0111101001001000;
	1688 :	0111100111110001;
	1687 :	0111100110011001;
	1686 :	0111100101000001;
	1685 :	0111100011101001;
	1684 :	0111100010010010;
	1683 :	0111100000111010;
	1682 :	0111011111100010;
	1681 :	0111011110001011;
	1680 :	0111011100110011;
	1679 :	0111011011011011;
	1678 :	0111011010000100;
	1677 :	0111011000101100;
	1676 :	0111010111010101;
	1675 :	0111010101111101;
	1674 :	0111010100100110;
	1673 :	0111010011001111;
	1672 :	0111010001110111;
	1671 :	0111010000100000;
	1670 :	0111001111001001;
	1669 :	0111001101110010;
	1668 :	0111001100011011;
	1667 :	0111001011000100;
	1666 :	0111001001101101;
	1665 :	0111001000010110;
	1664 :	0111000110111111;
	1663 :	0111000101101000;
	1662 :	0111000100010001;
	1661 :	0111000010111010;
	1660 :	0111000001100011;
	1659 :	0111000000001101;
	1658 :	0110111110110110;
	1657 :	0110111101100000;
	1656 :	0110111100001001;
	1655 :	0110111010110011;
	1654 :	0110111001011100;
	1653 :	0110111000000110;
	1652 :	0110110110110000;
	1651 :	0110110101011010;
	1650 :	0110110100000100;
	1649 :	0110110010101101;
	1648 :	0110110001011000;
	1647 :	0110110000000010;
	1646 :	0110101110101100;
	1645 :	0110101101010110;
	1644 :	0110101100000000;
	1643 :	0110101010101011;
	1642 :	0110101001010101;
	1641 :	0110101000000000;
	1640 :	0110100110101011;
	1639 :	0110100101010101;
	1638 :	0110100100000000;
	1637 :	0110100010101011;
	1636 :	0110100001010110;
	1635 :	0110100000000001;
	1634 :	0110011110101100;
	1633 :	0110011101010111;
	1632 :	0110011100000011;
	1631 :	0110011010101110;
	1630 :	0110011001011001;
	1629 :	0110011000000101;
	1628 :	0110010110110001;
	1627 :	0110010101011100;
	1626 :	0110010100001000;
	1625 :	0110010010110100;
	1624 :	0110010001100000;
	1623 :	0110010000001100;
	1622 :	0110001110111001;
	1621 :	0110001101100101;
	1620 :	0110001100010010;
	1619 :	0110001010111110;
	1618 :	0110001001101011;
	1617 :	0110001000010111;
	1616 :	0110000111000100;
	1615 :	0110000101110001;
	1614 :	0110000100011110;
	1613 :	0110000011001100;
	1612 :	0110000001111001;
	1611 :	0110000000100110;
	1610 :	0101111111010100;
	1609 :	0101111110000001;
	1608 :	0101111100101111;
	1607 :	0101111011011101;
	1606 :	0101111010001011;
	1605 :	0101111000111001;
	1604 :	0101110111100111;
	1603 :	0101110110010101;
	1602 :	0101110101000100;
	1601 :	0101110011110010;
	1600 :	0101110010100001;
	1599 :	0101110001010000;
	1598 :	0101101111111111;
	1597 :	0101101110101110;
	1596 :	0101101101011101;
	1595 :	0101101100001100;
	1594 :	0101101010111100;
	1593 :	0101101001101011;
	1592 :	0101101000011011;
	1591 :	0101100111001010;
	1590 :	0101100101111010;
	1589 :	0101100100101010;
	1588 :	0101100011011011;
	1587 :	0101100010001011;
	1586 :	0101100000111011;
	1585 :	0101011111101100;
	1584 :	0101011110011101;
	1583 :	0101011101001101;
	1582 :	0101011011111110;
	1581 :	0101011010101111;
	1580 :	0101011001100001;
	1579 :	0101011000010010;
	1578 :	0101010111000100;
	1577 :	0101010101110101;
	1576 :	0101010100100111;
	1575 :	0101010011011001;
	1574 :	0101010010001011;
	1573 :	0101010000111101;
	1572 :	0101001111110000;
	1571 :	0101001110100010;
	1570 :	0101001101010101;
	1569 :	0101001100001000;
	1568 :	0101001010111010;
	1567 :	0101001001101110;
	1566 :	0101001000100001;
	1565 :	0101000111010100;
	1564 :	0101000110001000;
	1563 :	0101000100111011;
	1562 :	0101000011101111;
	1561 :	0101000010100011;
	1560 :	0101000001010111;
	1559 :	0101000000001100;
	1558 :	0100111111000000;
	1557 :	0100111101110101;
	1556 :	0100111100101001;
	1555 :	0100111011011110;
	1554 :	0100111010010011;
	1553 :	0100111001001000;
	1552 :	0100110111111110;
	1551 :	0100110110110011;
	1550 :	0100110101101001;
	1549 :	0100110100011111;
	1548 :	0100110011010101;
	1547 :	0100110010001011;
	1546 :	0100110001000001;
	1545 :	0100101111111000;
	1544 :	0100101110101110;
	1543 :	0100101101100101;
	1542 :	0100101100011100;
	1541 :	0100101011010011;
	1540 :	0100101010001010;
	1539 :	0100101001000010;
	1538 :	0100100111111001;
	1537 :	0100100110110001;
	1536 :	0100100101101001;
	1535 :	0100100100100001;
	1534 :	0100100011011001;
	1533 :	0100100010010010;
	1532 :	0100100001001010;
	1531 :	0100100000000011;
	1530 :	0100011110111100;
	1529 :	0100011101110101;
	1528 :	0100011100101110;
	1527 :	0100011011101000;
	1526 :	0100011010100001;
	1525 :	0100011001011011;
	1524 :	0100011000010101;
	1523 :	0100010111001111;
	1522 :	0100010110001010;
	1521 :	0100010101000100;
	1520 :	0100010011111111;
	1519 :	0100010010111001;
	1518 :	0100010001110100;
	1517 :	0100010000101111;
	1516 :	0100001111101011;
	1515 :	0100001110100110;
	1514 :	0100001101100010;
	1513 :	0100001100011110;
	1512 :	0100001011011010;
	1511 :	0100001010010110;
	1510 :	0100001001010010;
	1509 :	0100001000001111;
	1508 :	0100000111001011;
	1507 :	0100000110001000;
	1506 :	0100000101000101;
	1505 :	0100000100000011;
	1504 :	0100000011000000;
	1503 :	0100000001111110;
	1502 :	0100000000111011;
	1501 :	0011111111111001;
	1500 :	0011111110110111;
	1499 :	0011111101110110;
	1498 :	0011111100110100;
	1497 :	0011111011110011;
	1496 :	0011111010110001;
	1495 :	0011111001110000;
	1494 :	0011111000110000;
	1493 :	0011110111101111;
	1492 :	0011110110101111;
	1491 :	0011110101101110;
	1490 :	0011110100101110;
	1489 :	0011110011101110;
	1488 :	0011110010101110;
	1487 :	0011110001101111;
	1486 :	0011110000110000;
	1485 :	0011101111110000;
	1484 :	0011101110110001;
	1483 :	0011101101110010;
	1482 :	0011101100110100;
	1481 :	0011101011110101;
	1480 :	0011101010110111;
	1479 :	0011101001111001;
	1478 :	0011101000111011;
	1477 :	0011100111111101;
	1476 :	0011100111000000;
	1475 :	0011100110000010;
	1474 :	0011100101000101;
	1473 :	0011100100001000;
	1472 :	0011100011001011;
	1471 :	0011100010001110;
	1470 :	0011100001010010;
	1469 :	0011100000010110;
	1468 :	0011011111011001;
	1467 :	0011011110011101;
	1466 :	0011011101100010;
	1465 :	0011011100100110;
	1464 :	0011011011101011;
	1463 :	0011011010101111;
	1462 :	0011011001110100;
	1461 :	0011011000111010;
	1460 :	0011010111111111;
	1459 :	0011010111000100;
	1458 :	0011010110001010;
	1457 :	0011010101010000;
	1456 :	0011010100010110;
	1455 :	0011010011011100;
	1454 :	0011010010100011;
	1453 :	0011010001101001;
	1452 :	0011010000110000;
	1451 :	0011001111110111;
	1450 :	0011001110111110;
	1449 :	0011001110000101;
	1448 :	0011001101001101;
	1447 :	0011001100010101;
	1446 :	0011001011011100;
	1445 :	0011001010100101;
	1444 :	0011001001101101;
	1443 :	0011001000110101;
	1442 :	0011000111111110;
	1441 :	0011000111000111;
	1440 :	0011000110010000;
	1439 :	0011000101011001;
	1438 :	0011000100100010;
	1437 :	0011000011101011;
	1436 :	0011000010110101;
	1435 :	0011000001111111;
	1434 :	0011000001001001;
	1433 :	0011000000010011;
	1432 :	0010111111011110;
	1431 :	0010111110101000;
	1430 :	0010111101110011;
	1429 :	0010111100111110;
	1428 :	0010111100001001;
	1427 :	0010111011010100;
	1426 :	0010111010100000;
	1425 :	0010111001101011;
	1424 :	0010111000110111;
	1423 :	0010111000000011;
	1422 :	0010110111010000;
	1421 :	0010110110011100;
	1420 :	0010110101101000;
	1419 :	0010110100110101;
	1418 :	0010110100000010;
	1417 :	0010110011001111;
	1416 :	0010110010011100;
	1415 :	0010110001101010;
	1414 :	0010110000110111;
	1413 :	0010110000000101;
	1412 :	0010101111010011;
	1411 :	0010101110100001;
	1410 :	0010101101110000;
	1409 :	0010101100111110;
	1408 :	0010101100001101;
	1407 :	0010101011011100;
	1406 :	0010101010101011;
	1405 :	0010101001111010;
	1404 :	0010101001001001;
	1403 :	0010101000011001;
	1402 :	0010100111101001;
	1401 :	0010100110111000;
	1400 :	0010100110001000;
	1399 :	0010100101011001;
	1398 :	0010100100101001;
	1397 :	0010100011111010;
	1396 :	0010100011001011;
	1395 :	0010100010011011;
	1394 :	0010100001101101;
	1393 :	0010100000111110;
	1392 :	0010100000001111;
	1391 :	0010011111100001;
	1390 :	0010011110110011;
	1389 :	0010011110000101;
	1388 :	0010011101010111;
	1387 :	0010011100101001;
	1386 :	0010011011111100;
	1385 :	0010011011001110;
	1384 :	0010011010100001;
	1383 :	0010011001110100;
	1382 :	0010011001000111;
	1381 :	0010011000011010;
	1380 :	0010010111101110;
	1379 :	0010010111000010;
	1378 :	0010010110010101;
	1377 :	0010010101101001;
	1376 :	0010010100111110;
	1375 :	0010010100010010;
	1374 :	0010010011100110;
	1373 :	0010010010111011;
	1372 :	0010010010010000;
	1371 :	0010010001100101;
	1370 :	0010010000111010;
	1369 :	0010010000001111;
	1368 :	0010001111100101;
	1367 :	0010001110111010;
	1366 :	0010001110010000;
	1365 :	0010001101100110;
	1364 :	0010001100111100;
	1363 :	0010001100010011;
	1362 :	0010001011101001;
	1361 :	0010001011000000;
	1360 :	0010001010010111;
	1359 :	0010001001101110;
	1358 :	0010001001000101;
	1357 :	0010001000011100;
	1356 :	0010000111110011;
	1355 :	0010000111001011;
	1354 :	0010000110100011;
	1353 :	0010000101111011;
	1352 :	0010000101010011;
	1351 :	0010000100101011;
	1350 :	0010000100000011;
	1349 :	0010000011011100;
	1348 :	0010000010110100;
	1347 :	0010000010001101;
	1346 :	0010000001100110;
	1345 :	0010000000111111;
	1344 :	0010000000011001;
	1343 :	0001111111110010;
	1342 :	0001111111001100;
	1341 :	0001111110100110;
	1340 :	0001111110000000;
	1339 :	0001111101011010;
	1338 :	0001111100110100;
	1337 :	0001111100001110;
	1336 :	0001111011101001;
	1335 :	0001111011000100;
	1334 :	0001111010011110;
	1333 :	0001111001111001;
	1332 :	0001111001010101;
	1331 :	0001111000110000;
	1330 :	0001111000001011;
	1329 :	0001110111100111;
	1328 :	0001110111000011;
	1327 :	0001110110011111;
	1326 :	0001110101111011;
	1325 :	0001110101010111;
	1324 :	0001110100110011;
	1323 :	0001110100010000;
	1322 :	0001110011101100;
	1321 :	0001110011001001;
	1320 :	0001110010100110;
	1319 :	0001110010000011;
	1318 :	0001110001100001;
	1317 :	0001110000111110;
	1316 :	0001110000011011;
	1315 :	0001101111111001;
	1314 :	0001101111010111;
	1313 :	0001101110110101;
	1312 :	0001101110010011;
	1311 :	0001101101110001;
	1310 :	0001101101010000;
	1309 :	0001101100101110;
	1308 :	0001101100001101;
	1307 :	0001101011101100;
	1306 :	0001101011001010;
	1305 :	0001101010101010;
	1304 :	0001101010001001;
	1303 :	0001101001101000;
	1302 :	0001101001001000;
	1301 :	0001101000100111;
	1300 :	0001101000000111;
	1299 :	0001100111100111;
	1298 :	0001100111000111;
	1297 :	0001100110100111;
	1296 :	0001100110001000;
	1295 :	0001100101101000;
	1294 :	0001100101001001;
	1293 :	0001100100101001;
	1292 :	0001100100001010;
	1291 :	0001100011101011;
	1290 :	0001100011001100;
	1289 :	0001100010101110;
	1288 :	0001100010001111;
	1287 :	0001100001110001;
	1286 :	0001100001010010;
	1285 :	0001100000110100;
	1284 :	0001100000010110;
	1283 :	0001011111111000;
	1282 :	0001011111011010;
	1281 :	0001011110111101;
	1280 :	0001011110011111;
	1279 :	0001011110000010;
	1278 :	0001011101100100;
	1277 :	0001011101000111;
	1276 :	0001011100101010;
	1275 :	0001011100001101;
	1274 :	0001011011110000;
	1273 :	0001011011010100;
	1272 :	0001011010110111;
	1271 :	0001011010011011;
	1270 :	0001011001111111;
	1269 :	0001011001100010;
	1268 :	0001011001000110;
	1267 :	0001011000101010;
	1266 :	0001011000001111;
	1265 :	0001010111110011;
	1264 :	0001010111010111;
	1263 :	0001010110111100;
	1262 :	0001010110100001;
	1261 :	0001010110000110;
	1260 :	0001010101101011;
	1259 :	0001010101010000;
	1258 :	0001010100110101;
	1257 :	0001010100011010;
	1256 :	0001010100000000;
	1255 :	0001010011100101;
	1254 :	0001010011001011;
	1253 :	0001010010110001;
	1252 :	0001010010010111;
	1251 :	0001010001111101;
	1250 :	0001010001100011;
	1249 :	0001010001001001;
	1248 :	0001010000101111;
	1247 :	0001010000010110;
	1246 :	0001001111111100;
	1245 :	0001001111100011;
	1244 :	0001001111001010;
	1243 :	0001001110110001;
	1242 :	0001001110011000;
	1241 :	0001001101111111;
	1240 :	0001001101100110;
	1239 :	0001001101001110;
	1238 :	0001001100110101;
	1237 :	0001001100011101;
	1236 :	0001001100000101;
	1235 :	0001001011101101;
	1234 :	0001001011010101;
	1233 :	0001001010111101;
	1232 :	0001001010100101;
	1231 :	0001001010001101;
	1230 :	0001001001110101;
	1229 :	0001001001011110;
	1228 :	0001001001000111;
	1227 :	0001001000101111;
	1226 :	0001001000011000;
	1225 :	0001001000000001;
	1224 :	0001000111101010;
	1223 :	0001000111010011;
	1222 :	0001000110111100;
	1221 :	0001000110100110;
	1220 :	0001000110001111;
	1219 :	0001000101111001;
	1218 :	0001000101100010;
	1217 :	0001000101001100;
	1216 :	0001000100110110;
	1215 :	0001000100100000;
	1214 :	0001000100001010;
	1213 :	0001000011110100;
	1212 :	0001000011011111;
	1211 :	0001000011001001;
	1210 :	0001000010110011;
	1209 :	0001000010011110;
	1208 :	0001000010001001;
	1207 :	0001000001110100;
	1206 :	0001000001011110;
	1205 :	0001000001001001;
	1204 :	0001000000110100;
	1203 :	0001000000100000;
	1202 :	0001000000001011;
	1201 :	0000111111110110;
	1200 :	0000111111100010;
	1199 :	0000111111001101;
	1198 :	0000111110111001;
	1197 :	0000111110100101;
	1196 :	0000111110010001;
	1195 :	0000111101111101;
	1194 :	0000111101101001;
	1193 :	0000111101010101;
	1192 :	0000111101000001;
	1191 :	0000111100101101;
	1190 :	0000111100011010;
	1189 :	0000111100000110;
	1188 :	0000111011110011;
	1187 :	0000111011011111;
	1186 :	0000111011001100;
	1185 :	0000111010111001;
	1184 :	0000111010100110;
	1183 :	0000111010010011;
	1182 :	0000111010000000;
	1181 :	0000111001101101;
	1180 :	0000111001011011;
	1179 :	0000111001001000;
	1178 :	0000111000110110;
	1177 :	0000111000100011;
	1176 :	0000111000010001;
	1175 :	0000110111111111;
	1174 :	0000110111101101;
	1173 :	0000110111011011;
	1172 :	0000110111001001;
	1171 :	0000110110110111;
	1170 :	0000110110100101;
	1169 :	0000110110010011;
	1168 :	0000110110000010;
	1167 :	0000110101110000;
	1166 :	0000110101011110;
	1165 :	0000110101001101;
	1164 :	0000110100111100;
	1163 :	0000110100101011;
	1162 :	0000110100011001;
	1161 :	0000110100001000;
	1160 :	0000110011110111;
	1159 :	0000110011100111;
	1158 :	0000110011010110;
	1157 :	0000110011000101;
	1156 :	0000110010110100;
	1155 :	0000110010100100;
	1154 :	0000110010010011;
	1153 :	0000110010000011;
	1152 :	0000110001110011;
	1151 :	0000110001100010;
	1150 :	0000110001010010;
	1149 :	0000110001000010;
	1148 :	0000110000110010;
	1147 :	0000110000100010;
	1146 :	0000110000010010;
	1145 :	0000110000000011;
	1144 :	0000101111110011;
	1143 :	0000101111100011;
	1142 :	0000101111010100;
	1141 :	0000101111000100;
	1140 :	0000101110110101;
	1139 :	0000101110100101;
	1138 :	0000101110010110;
	1137 :	0000101110000111;
	1136 :	0000101101111000;
	1135 :	0000101101101001;
	1134 :	0000101101011010;
	1133 :	0000101101001011;
	1132 :	0000101100111100;
	1131 :	0000101100101101;
	1130 :	0000101100011111;
	1129 :	0000101100010000;
	1128 :	0000101100000010;
	1127 :	0000101011110011;
	1126 :	0000101011100101;
	1125 :	0000101011010111;
	1124 :	0000101011001000;
	1123 :	0000101010111010;
	1122 :	0000101010101100;
	1121 :	0000101010011110;
	1120 :	0000101010010000;
	1119 :	0000101010000010;
	1118 :	0000101001110100;
	1117 :	0000101001100111;
	1116 :	0000101001011001;
	1115 :	0000101001001011;
	1114 :	0000101000111110;
	1113 :	0000101000110000;
	1112 :	0000101000100011;
	1111 :	0000101000010101;
	1110 :	0000101000001000;
	1109 :	0000100111111011;
	1108 :	0000100111101110;
	1107 :	0000100111100001;
	1106 :	0000100111010100;
	1105 :	0000100111000111;
	1104 :	0000100110111010;
	1103 :	0000100110101101;
	1102 :	0000100110100000;
	1101 :	0000100110010100;
	1100 :	0000100110000111;
	1099 :	0000100101111010;
	1098 :	0000100101101110;
	1097 :	0000100101100001;
	1096 :	0000100101010101;
	1095 :	0000100101001001;
	1094 :	0000100100111100;
	1093 :	0000100100110000;
	1092 :	0000100100100100;
	1091 :	0000100100011000;
	1090 :	0000100100001100;
	1089 :	0000100100000000;
	1088 :	0000100011110100;
	1087 :	0000100011101000;
	1086 :	0000100011011100;
	1085 :	0000100011010001;
	1084 :	0000100011000101;
	1083 :	0000100010111001;
	1082 :	0000100010101110;
	1081 :	0000100010100010;
	1080 :	0000100010010111;
	1079 :	0000100010001011;
	1078 :	0000100010000000;
	1077 :	0000100001110101;
	1076 :	0000100001101010;
	1075 :	0000100001011110;
	1074 :	0000100001010011;
	1073 :	0000100001001000;
	1072 :	0000100000111101;
	1071 :	0000100000110010;
	1070 :	0000100000100111;
	1069 :	0000100000011101;
	1068 :	0000100000010010;
	1067 :	0000100000000111;
	1066 :	0000011111111100;
	1065 :	0000011111110010;
	1064 :	0000011111100111;
	1063 :	0000011111011101;
	1062 :	0000011111010010;
	1061 :	0000011111001000;
	1060 :	0000011110111110;
	1059 :	0000011110110011;
	1058 :	0000011110101001;
	1057 :	0000011110011111;
	1056 :	0000011110010101;
	1055 :	0000011110001011;
	1054 :	0000011110000001;
	1053 :	0000011101110111;
	1052 :	0000011101101101;
	1051 :	0000011101100011;
	1050 :	0000011101011001;
	1049 :	0000011101001111;
	1048 :	0000011101000101;
	1047 :	0000011100111100;
	1046 :	0000011100110010;
	1045 :	0000011100101000;
	1044 :	0000011100011111;
	1043 :	0000011100010101;
	1042 :	0000011100001100;
	1041 :	0000011100000010;
	1040 :	0000011011111001;
	1039 :	0000011011110000;
	1038 :	0000011011100111;
	1037 :	0000011011011101;
	1036 :	0000011011010100;
	1035 :	0000011011001011;
	1034 :	0000011011000010;
	1033 :	0000011010111001;
	1032 :	0000011010110000;
	1031 :	0000011010100111;
	1030 :	0000011010011110;
	1029 :	0000011010010101;
	1028 :	0000011010001101;
	1027 :	0000011010000100;
	1026 :	0000011001111011;
	1025 :	0000011001110010;
	1024 :	0000011001101010;
	1023 :	0000011001100001;
	1022 :	0000011001011001;
	1021 :	0000011001010000;
	1020 :	0000011001001000;
	1019 :	0000011000111111;
	1018 :	0000011000110111;
	1017 :	0000011000101111;
	1016 :	0000011000100110;
	1015 :	0000011000011110;
	1014 :	0000011000010110;
	1013 :	0000011000001110;
	1012 :	0000011000000110;
	1011 :	0000010111111110;
	1010 :	0000010111110110;
	1009 :	0000010111101110;
	1008 :	0000010111100110;
	1007 :	0000010111011110;
	1006 :	0000010111010110;
	1005 :	0000010111001110;
	1004 :	0000010111000110;
	1003 :	0000010110111111;
	1002 :	0000010110110111;
	1001 :	0000010110101111;
	1000 :	0000010110101000;
	999 :	0000010110100000;
	998 :	0000010110011000;
	997 :	0000010110010001;
	996 :	0000010110001001;
	995 :	0000010110000010;
	994 :	0000010101111011;
	993 :	0000010101110011;
	992 :	0000010101101100;
	991 :	0000010101100101;
	990 :	0000010101011101;
	989 :	0000010101010110;
	988 :	0000010101001111;
	987 :	0000010101001000;
	986 :	0000010101000001;
	985 :	0000010100111010;
	984 :	0000010100110011;
	983 :	0000010100101100;
	982 :	0000010100100101;
	981 :	0000010100011110;
	980 :	0000010100010111;
	979 :	0000010100010000;
	978 :	0000010100001001;
	977 :	0000010100000011;
	976 :	0000010011111100;
	975 :	0000010011110101;
	974 :	0000010011101110;
	973 :	0000010011101000;
	972 :	0000010011100001;
	971 :	0000010011011011;
	970 :	0000010011010100;
	969 :	0000010011001110;
	968 :	0000010011000111;
	967 :	0000010011000001;
	966 :	0000010010111010;
	965 :	0000010010110100;
	964 :	0000010010101110;
	963 :	0000010010100111;
	962 :	0000010010100001;
	961 :	0000010010011011;
	960 :	0000010010010101;
	959 :	0000010010001110;
	958 :	0000010010001000;
	957 :	0000010010000010;
	956 :	0000010001111100;
	955 :	0000010001110110;
	954 :	0000010001110000;
	953 :	0000010001101010;
	952 :	0000010001100100;
	951 :	0000010001011110;
	950 :	0000010001011000;
	949 :	0000010001010010;
	948 :	0000010001001101;
	947 :	0000010001000111;
	946 :	0000010001000001;
	945 :	0000010000111011;
	944 :	0000010000110110;
	943 :	0000010000110000;
	942 :	0000010000101010;
	941 :	0000010000100101;
	940 :	0000010000011111;
	939 :	0000010000011001;
	938 :	0000010000010100;
	937 :	0000010000001110;
	936 :	0000010000001001;
	935 :	0000010000000100;
	934 :	0000001111111110;
	933 :	0000001111111001;
	932 :	0000001111110011;
	931 :	0000001111101110;
	930 :	0000001111101001;
	929 :	0000001111100011;
	928 :	0000001111011110;
	927 :	0000001111011001;
	926 :	0000001111010100;
	925 :	0000001111001111;
	924 :	0000001111001001;
	923 :	0000001111000100;
	922 :	0000001110111111;
	921 :	0000001110111010;
	920 :	0000001110110101;
	919 :	0000001110110000;
	918 :	0000001110101011;
	917 :	0000001110100110;
	916 :	0000001110100001;
	915 :	0000001110011100;
	914 :	0000001110010111;
	913 :	0000001110010011;
	912 :	0000001110001110;
	911 :	0000001110001001;
	910 :	0000001110000100;
	909 :	0000001101111111;
	908 :	0000001101111011;
	907 :	0000001101110110;
	906 :	0000001101110001;
	905 :	0000001101101101;
	904 :	0000001101101000;
	903 :	0000001101100011;
	902 :	0000001101011111;
	901 :	0000001101011010;
	900 :	0000001101010110;
	899 :	0000001101010001;
	898 :	0000001101001101;
	897 :	0000001101001000;
	896 :	0000001101000100;
	895 :	0000001100111111;
	894 :	0000001100111011;
	893 :	0000001100110111;
	892 :	0000001100110010;
	891 :	0000001100101110;
	890 :	0000001100101010;
	889 :	0000001100100101;
	888 :	0000001100100001;
	887 :	0000001100011101;
	886 :	0000001100011001;
	885 :	0000001100010100;
	884 :	0000001100010000;
	883 :	0000001100001100;
	882 :	0000001100001000;
	881 :	0000001100000100;
	880 :	0000001100000000;
	879 :	0000001011111100;
	878 :	0000001011111000;
	877 :	0000001011110100;
	876 :	0000001011110000;
	875 :	0000001011101100;
	874 :	0000001011101000;
	873 :	0000001011100100;
	872 :	0000001011100000;
	871 :	0000001011011100;
	870 :	0000001011011000;
	869 :	0000001011010100;
	868 :	0000001011010000;
	867 :	0000001011001100;
	866 :	0000001011001001;
	865 :	0000001011000101;
	864 :	0000001011000001;
	863 :	0000001010111101;
	862 :	0000001010111010;
	861 :	0000001010110110;
	860 :	0000001010110010;
	859 :	0000001010101111;
	858 :	0000001010101011;
	857 :	0000001010100111;
	856 :	0000001010100100;
	855 :	0000001010100000;
	854 :	0000001010011101;
	853 :	0000001010011001;
	852 :	0000001010010101;
	851 :	0000001010010010;
	850 :	0000001010001110;
	849 :	0000001010001011;
	848 :	0000001010001000;
	847 :	0000001010000100;
	846 :	0000001010000001;
	845 :	0000001001111101;
	844 :	0000001001111010;
	843 :	0000001001110111;
	842 :	0000001001110011;
	841 :	0000001001110000;
	840 :	0000001001101101;
	839 :	0000001001101001;
	838 :	0000001001100110;
	837 :	0000001001100011;
	836 :	0000001001011111;
	835 :	0000001001011100;
	834 :	0000001001011001;
	833 :	0000001001010110;
	832 :	0000001001010011;
	831 :	0000001001010000;
	830 :	0000001001001100;
	829 :	0000001001001001;
	828 :	0000001001000110;
	827 :	0000001001000011;
	826 :	0000001001000000;
	825 :	0000001000111101;
	824 :	0000001000111010;
	823 :	0000001000110111;
	822 :	0000001000110100;
	821 :	0000001000110001;
	820 :	0000001000101110;
	819 :	0000001000101011;
	818 :	0000001000101000;
	817 :	0000001000100101;
	816 :	0000001000100010;
	815 :	0000001000011111;
	814 :	0000001000011100;
	813 :	0000001000011001;
	812 :	0000001000010111;
	811 :	0000001000010100;
	810 :	0000001000010001;
	809 :	0000001000001110;
	808 :	0000001000001011;
	807 :	0000001000001000;
	806 :	0000001000000110;
	805 :	0000001000000011;
	804 :	0000001000000000;
	803 :	0000000111111101;
	802 :	0000000111111011;
	801 :	0000000111111000;
	800 :	0000000111110101;
	799 :	0000000111110011;
	798 :	0000000111110000;
	797 :	0000000111101101;
	796 :	0000000111101011;
	795 :	0000000111101000;
	794 :	0000000111100110;
	793 :	0000000111100011;
	792 :	0000000111100000;
	791 :	0000000111011110;
	790 :	0000000111011011;
	789 :	0000000111011001;
	788 :	0000000111010110;
	787 :	0000000111010100;
	786 :	0000000111010001;
	785 :	0000000111001111;
	784 :	0000000111001100;
	783 :	0000000111001010;
	782 :	0000000111000111;
	781 :	0000000111000101;
	780 :	0000000111000011;
	779 :	0000000111000000;
	778 :	0000000110111110;
	777 :	0000000110111011;
	776 :	0000000110111001;
	775 :	0000000110110111;
	774 :	0000000110110100;
	773 :	0000000110110010;
	772 :	0000000110110000;
	771 :	0000000110101101;
	770 :	0000000110101011;
	769 :	0000000110101001;
	768 :	0000000110100111;
	767 :	0000000110100100;
	766 :	0000000110100010;
	765 :	0000000110100000;
	764 :	0000000110011110;
	763 :	0000000110011100;
	762 :	0000000110011001;
	761 :	0000000110010111;
	760 :	0000000110010101;
	759 :	0000000110010011;
	758 :	0000000110010001;
	757 :	0000000110001111;
	756 :	0000000110001100;
	755 :	0000000110001010;
	754 :	0000000110001000;
	753 :	0000000110000110;
	752 :	0000000110000100;
	751 :	0000000110000010;
	750 :	0000000110000000;
	749 :	0000000101111110;
	748 :	0000000101111100;
	747 :	0000000101111010;
	746 :	0000000101111000;
	745 :	0000000101110110;
	744 :	0000000101110100;
	743 :	0000000101110010;
	742 :	0000000101110000;
	741 :	0000000101101110;
	740 :	0000000101101100;
	739 :	0000000101101010;
	738 :	0000000101101000;
	737 :	0000000101100110;
	736 :	0000000101100100;
	735 :	0000000101100010;
	734 :	0000000101100000;
	733 :	0000000101011111;
	732 :	0000000101011101;
	731 :	0000000101011011;
	730 :	0000000101011001;
	729 :	0000000101010111;
	728 :	0000000101010101;
	727 :	0000000101010011;
	726 :	0000000101010010;
	725 :	0000000101010000;
	724 :	0000000101001110;
	723 :	0000000101001100;
	722 :	0000000101001010;
	721 :	0000000101001001;
	720 :	0000000101000111;
	719 :	0000000101000101;
	718 :	0000000101000011;
	717 :	0000000101000010;
	716 :	0000000101000000;
	715 :	0000000100111110;
	714 :	0000000100111101;
	713 :	0000000100111011;
	712 :	0000000100111001;
	711 :	0000000100111000;
	710 :	0000000100110110;
	709 :	0000000100110100;
	708 :	0000000100110011;
	707 :	0000000100110001;
	706 :	0000000100101111;
	705 :	0000000100101110;
	704 :	0000000100101100;
	703 :	0000000100101011;
	702 :	0000000100101001;
	701 :	0000000100100111;
	700 :	0000000100100110;
	699 :	0000000100100100;
	698 :	0000000100100011;
	697 :	0000000100100001;
	696 :	0000000100100000;
	695 :	0000000100011110;
	694 :	0000000100011100;
	693 :	0000000100011011;
	692 :	0000000100011001;
	691 :	0000000100011000;
	690 :	0000000100010110;
	689 :	0000000100010101;
	688 :	0000000100010011;
	687 :	0000000100010010;
	686 :	0000000100010001;
	685 :	0000000100001111;
	684 :	0000000100001110;
	683 :	0000000100001100;
	682 :	0000000100001011;
	681 :	0000000100001001;
	680 :	0000000100001000;
	679 :	0000000100000111;
	678 :	0000000100000101;
	677 :	0000000100000100;
	676 :	0000000100000010;
	675 :	0000000100000001;
	674 :	0000000100000000;
	673 :	0000000011111110;
	672 :	0000000011111101;
	671 :	0000000011111011;
	670 :	0000000011111010;
	669 :	0000000011111001;
	668 :	0000000011110111;
	667 :	0000000011110110;
	666 :	0000000011110101;
	665 :	0000000011110100;
	664 :	0000000011110010;
	663 :	0000000011110001;
	662 :	0000000011110000;
	661 :	0000000011101110;
	660 :	0000000011101101;
	659 :	0000000011101100;
	658 :	0000000011101011;
	657 :	0000000011101001;
	656 :	0000000011101000;
	655 :	0000000011100111;
	654 :	0000000011100110;
	653 :	0000000011100100;
	652 :	0000000011100011;
	651 :	0000000011100010;
	650 :	0000000011100001;
	649 :	0000000011011111;
	648 :	0000000011011110;
	647 :	0000000011011101;
	646 :	0000000011011100;
	645 :	0000000011011011;
	644 :	0000000011011010;
	643 :	0000000011011000;
	642 :	0000000011010111;
	641 :	0000000011010110;
	640 :	0000000011010101;
	639 :	0000000011010100;
	638 :	0000000011010011;
	637 :	0000000011010010;
	636 :	0000000011010000;
	635 :	0000000011001111;
	634 :	0000000011001110;
	633 :	0000000011001101;
	632 :	0000000011001100;
	631 :	0000000011001011;
	630 :	0000000011001010;
	629 :	0000000011001001;
	628 :	0000000011001000;
	627 :	0000000011000111;
	626 :	0000000011000110;
	625 :	0000000011000100;
	624 :	0000000011000011;
	623 :	0000000011000010;
	622 :	0000000011000001;
	621 :	0000000011000000;
	620 :	0000000010111111;
	619 :	0000000010111110;
	618 :	0000000010111101;
	617 :	0000000010111100;
	616 :	0000000010111011;
	615 :	0000000010111010;
	614 :	0000000010111001;
	613 :	0000000010111000;
	612 :	0000000010110111;
	611 :	0000000010110110;
	610 :	0000000010110101;
	609 :	0000000010110100;
	608 :	0000000010110011;
	607 :	0000000010110010;
	606 :	0000000010110001;
	605 :	0000000010110000;
	604 :	0000000010110000;
	603 :	0000000010101111;
	602 :	0000000010101110;
	601 :	0000000010101101;
	600 :	0000000010101100;
	599 :	0000000010101011;
	598 :	0000000010101010;
	597 :	0000000010101001;
	596 :	0000000010101000;
	595 :	0000000010100111;
	594 :	0000000010100110;
	593 :	0000000010100101;
	592 :	0000000010100101;
	591 :	0000000010100100;
	590 :	0000000010100011;
	589 :	0000000010100010;
	588 :	0000000010100001;
	587 :	0000000010100000;
	586 :	0000000010011111;
	585 :	0000000010011110;
	584 :	0000000010011110;
	583 :	0000000010011101;
	582 :	0000000010011100;
	581 :	0000000010011011;
	580 :	0000000010011010;
	579 :	0000000010011001;
	578 :	0000000010011001;
	577 :	0000000010011000;
	576 :	0000000010010111;
	575 :	0000000010010110;
	574 :	0000000010010101;
	573 :	0000000010010101;
	572 :	0000000010010100;
	571 :	0000000010010011;
	570 :	0000000010010010;
	569 :	0000000010010001;
	568 :	0000000010010001;
	567 :	0000000010010000;
	566 :	0000000010001111;
	565 :	0000000010001110;
	564 :	0000000010001110;
	563 :	0000000010001101;
	562 :	0000000010001100;
	561 :	0000000010001011;
	560 :	0000000010001011;
	559 :	0000000010001010;
	558 :	0000000010001001;
	557 :	0000000010001000;
	556 :	0000000010001000;
	555 :	0000000010000111;
	554 :	0000000010000110;
	553 :	0000000010000101;
	552 :	0000000010000101;
	551 :	0000000010000100;
	550 :	0000000010000011;
	549 :	0000000010000011;
	548 :	0000000010000010;
	547 :	0000000010000001;
	546 :	0000000010000001;
	545 :	0000000010000000;
	544 :	0000000001111111;
	543 :	0000000001111110;
	542 :	0000000001111110;
	541 :	0000000001111101;
	540 :	0000000001111100;
	539 :	0000000001111100;
	538 :	0000000001111011;
	537 :	0000000001111010;
	536 :	0000000001111010;
	535 :	0000000001111001;
	534 :	0000000001111000;
	533 :	0000000001111000;
	532 :	0000000001110111;
	531 :	0000000001110111;
	530 :	0000000001110110;
	529 :	0000000001110101;
	528 :	0000000001110101;
	527 :	0000000001110100;
	526 :	0000000001110011;
	525 :	0000000001110011;
	524 :	0000000001110010;
	523 :	0000000001110010;
	522 :	0000000001110001;
	521 :	0000000001110000;
	520 :	0000000001110000;
	519 :	0000000001101111;
	518 :	0000000001101111;
	517 :	0000000001101110;
	516 :	0000000001101101;
	515 :	0000000001101101;
	514 :	0000000001101100;
	513 :	0000000001101100;
	512 :	0000000001101011;
	511 :	0000000001101010;
	510 :	0000000001101010;
	509 :	0000000001101001;
	508 :	0000000001101001;
	507 :	0000000001101000;
	506 :	0000000001101000;
	505 :	0000000001100111;
	504 :	0000000001100110;
	503 :	0000000001100110;
	502 :	0000000001100101;
	501 :	0000000001100101;
	500 :	0000000001100100;
	499 :	0000000001100100;
	498 :	0000000001100011;
	497 :	0000000001100011;
	496 :	0000000001100010;
	495 :	0000000001100010;
	494 :	0000000001100001;
	493 :	0000000001100001;
	492 :	0000000001100000;
	491 :	0000000001100000;
	490 :	0000000001011111;
	489 :	0000000001011111;
	488 :	0000000001011110;
	487 :	0000000001011110;
	486 :	0000000001011101;
	485 :	0000000001011101;
	484 :	0000000001011100;
	483 :	0000000001011100;
	482 :	0000000001011011;
	481 :	0000000001011011;
	480 :	0000000001011010;
	479 :	0000000001011010;
	478 :	0000000001011001;
	477 :	0000000001011001;
	476 :	0000000001011000;
	475 :	0000000001011000;
	474 :	0000000001010111;
	473 :	0000000001010111;
	472 :	0000000001010110;
	471 :	0000000001010110;
	470 :	0000000001010101;
	469 :	0000000001010101;
	468 :	0000000001010100;
	467 :	0000000001010100;
	466 :	0000000001010100;
	465 :	0000000001010011;
	464 :	0000000001010011;
	463 :	0000000001010010;
	462 :	0000000001010010;
	461 :	0000000001010001;
	460 :	0000000001010001;
	459 :	0000000001010000;
	458 :	0000000001010000;
	457 :	0000000001010000;
	456 :	0000000001001111;
	455 :	0000000001001111;
	454 :	0000000001001110;
	453 :	0000000001001110;
	452 :	0000000001001101;
	451 :	0000000001001101;
	450 :	0000000001001101;
	449 :	0000000001001100;
	448 :	0000000001001100;
	447 :	0000000001001011;
	446 :	0000000001001011;
	445 :	0000000001001011;
	444 :	0000000001001010;
	443 :	0000000001001010;
	442 :	0000000001001001;
	441 :	0000000001001001;
	440 :	0000000001001001;
	439 :	0000000001001000;
	438 :	0000000001001000;
	437 :	0000000001000111;
	436 :	0000000001000111;
	435 :	0000000001000111;
	434 :	0000000001000110;
	433 :	0000000001000110;
	432 :	0000000001000101;
	431 :	0000000001000101;
	430 :	0000000001000101;
	429 :	0000000001000100;
	428 :	0000000001000100;
	427 :	0000000001000100;
	426 :	0000000001000011;
	425 :	0000000001000011;
	424 :	0000000001000011;
	423 :	0000000001000010;
	422 :	0000000001000010;
	421 :	0000000001000001;
	420 :	0000000001000001;
	419 :	0000000001000001;
	418 :	0000000001000000;
	417 :	0000000001000000;
	416 :	0000000001000000;
	415 :	0000000000111111;
	414 :	0000000000111111;
	413 :	0000000000111111;
	412 :	0000000000111110;
	411 :	0000000000111110;
	410 :	0000000000111110;
	409 :	0000000000111101;
	408 :	0000000000111101;
	407 :	0000000000111101;
	406 :	0000000000111100;
	405 :	0000000000111100;
	404 :	0000000000111100;
	403 :	0000000000111011;
	402 :	0000000000111011;
	401 :	0000000000111011;
	400 :	0000000000111010;
	399 :	0000000000111010;
	398 :	0000000000111010;
	397 :	0000000000111010;
	396 :	0000000000111001;
	395 :	0000000000111001;
	394 :	0000000000111001;
	393 :	0000000000111000;
	392 :	0000000000111000;
	391 :	0000000000111000;
	390 :	0000000000110111;
	389 :	0000000000110111;
	388 :	0000000000110111;
	387 :	0000000000110110;
	386 :	0000000000110110;
	385 :	0000000000110110;
	384 :	0000000000110110;
	383 :	0000000000110101;
	382 :	0000000000110101;
	381 :	0000000000110101;
	380 :	0000000000110100;
	379 :	0000000000110100;
	378 :	0000000000110100;
	377 :	0000000000110100;
	376 :	0000000000110011;
	375 :	0000000000110011;
	374 :	0000000000110011;
	373 :	0000000000110011;
	372 :	0000000000110010;
	371 :	0000000000110010;
	370 :	0000000000110010;
	369 :	0000000000110001;
	368 :	0000000000110001;
	367 :	0000000000110001;
	366 :	0000000000110001;
	365 :	0000000000110000;
	364 :	0000000000110000;
	363 :	0000000000110000;
	362 :	0000000000110000;
	361 :	0000000000101111;
	360 :	0000000000101111;
	359 :	0000000000101111;
	358 :	0000000000101111;
	357 :	0000000000101110;
	356 :	0000000000101110;
	355 :	0000000000101110;
	354 :	0000000000101110;
	353 :	0000000000101101;
	352 :	0000000000101101;
	351 :	0000000000101101;
	350 :	0000000000101101;
	349 :	0000000000101100;
	348 :	0000000000101100;
	347 :	0000000000101100;
	346 :	0000000000101100;
	345 :	0000000000101011;
	344 :	0000000000101011;
	343 :	0000000000101011;
	342 :	0000000000101011;
	341 :	0000000000101010;
	340 :	0000000000101010;
	339 :	0000000000101010;
	338 :	0000000000101010;
	337 :	0000000000101010;
	336 :	0000000000101001;
	335 :	0000000000101001;
	334 :	0000000000101001;
	333 :	0000000000101001;
	332 :	0000000000101000;
	331 :	0000000000101000;
	330 :	0000000000101000;
	329 :	0000000000101000;
	328 :	0000000000101000;
	327 :	0000000000100111;
	326 :	0000000000100111;
	325 :	0000000000100111;
	324 :	0000000000100111;
	323 :	0000000000100110;
	322 :	0000000000100110;
	321 :	0000000000100110;
	320 :	0000000000100110;
	319 :	0000000000100110;
	318 :	0000000000100101;
	317 :	0000000000100101;
	316 :	0000000000100101;
	315 :	0000000000100101;
	314 :	0000000000100101;
	313 :	0000000000100100;
	312 :	0000000000100100;
	311 :	0000000000100100;
	310 :	0000000000100100;
	309 :	0000000000100100;
	308 :	0000000000100011;
	307 :	0000000000100011;
	306 :	0000000000100011;
	305 :	0000000000100011;
	304 :	0000000000100011;
	303 :	0000000000100011;
	302 :	0000000000100010;
	301 :	0000000000100010;
	300 :	0000000000100010;
	299 :	0000000000100010;
	298 :	0000000000100010;
	297 :	0000000000100001;
	296 :	0000000000100001;
	295 :	0000000000100001;
	294 :	0000000000100001;
	293 :	0000000000100001;
	292 :	0000000000100001;
	291 :	0000000000100000;
	290 :	0000000000100000;
	289 :	0000000000100000;
	288 :	0000000000100000;
	287 :	0000000000100000;
	286 :	0000000000011111;
	285 :	0000000000011111;
	284 :	0000000000011111;
	283 :	0000000000011111;
	282 :	0000000000011111;
	281 :	0000000000011111;
	280 :	0000000000011110;
	279 :	0000000000011110;
	278 :	0000000000011110;
	277 :	0000000000011110;
	276 :	0000000000011110;
	275 :	0000000000011110;
	274 :	0000000000011101;
	273 :	0000000000011101;
	272 :	0000000000011101;
	271 :	0000000000011101;
	270 :	0000000000011101;
	269 :	0000000000011101;
	268 :	0000000000011101;
	267 :	0000000000011100;
	266 :	0000000000011100;
	265 :	0000000000011100;
	264 :	0000000000011100;
	263 :	0000000000011100;
	262 :	0000000000011100;
	261 :	0000000000011011;
	260 :	0000000000011011;
	259 :	0000000000011011;
	258 :	0000000000011011;
	257 :	0000000000011011;
	256 :	0000000000011011;
	255 :	0000000000011011;
	254 :	0000000000011010;
	253 :	0000000000011010;
	252 :	0000000000011010;
	251 :	0000000000011010;
	250 :	0000000000011010;
	249 :	0000000000011010;
	248 :	0000000000011010;
	247 :	0000000000011001;
	246 :	0000000000011001;
	245 :	0000000000011001;
	244 :	0000000000011001;
	243 :	0000000000011001;
	242 :	0000000000011001;
	241 :	0000000000011001;
	240 :	0000000000011000;
	239 :	0000000000011000;
	238 :	0000000000011000;
	237 :	0000000000011000;
	236 :	0000000000011000;
	235 :	0000000000011000;
	234 :	0000000000011000;
	233 :	0000000000011000;
	232 :	0000000000010111;
	231 :	0000000000010111;
	230 :	0000000000010111;
	229 :	0000000000010111;
	228 :	0000000000010111;
	227 :	0000000000010111;
	226 :	0000000000010111;
	225 :	0000000000010111;
	224 :	0000000000010110;
	223 :	0000000000010110;
	222 :	0000000000010110;
	221 :	0000000000010110;
	220 :	0000000000010110;
	219 :	0000000000010110;
	218 :	0000000000010110;
	217 :	0000000000010110;
	216 :	0000000000010101;
	215 :	0000000000010101;
	214 :	0000000000010101;
	213 :	0000000000010101;
	212 :	0000000000010101;
	211 :	0000000000010101;
	210 :	0000000000010101;
	209 :	0000000000010101;
	208 :	0000000000010101;
	207 :	0000000000010100;
	206 :	0000000000010100;
	205 :	0000000000010100;
	204 :	0000000000010100;
	203 :	0000000000010100;
	202 :	0000000000010100;
	201 :	0000000000010100;
	200 :	0000000000010100;
	199 :	0000000000010100;
	198 :	0000000000010011;
	197 :	0000000000010011;
	196 :	0000000000010011;
	195 :	0000000000010011;
	194 :	0000000000010011;
	193 :	0000000000010011;
	192 :	0000000000010011;
	191 :	0000000000010011;
	190 :	0000000000010011;
	189 :	0000000000010010;
	188 :	0000000000010010;
	187 :	0000000000010010;
	186 :	0000000000010010;
	185 :	0000000000010010;
	184 :	0000000000010010;
	183 :	0000000000010010;
	182 :	0000000000010010;
	181 :	0000000000010010;
	180 :	0000000000010010;
	179 :	0000000000010010;
	178 :	0000000000010001;
	177 :	0000000000010001;
	176 :	0000000000010001;
	175 :	0000000000010001;
	174 :	0000000000010001;
	173 :	0000000000010001;
	172 :	0000000000010001;
	171 :	0000000000010001;
	170 :	0000000000010001;
	169 :	0000000000010001;
	168 :	0000000000010000;
	167 :	0000000000010000;
	166 :	0000000000010000;
	165 :	0000000000010000;
	164 :	0000000000010000;
	163 :	0000000000010000;
	162 :	0000000000010000;
	161 :	0000000000010000;
	160 :	0000000000010000;
	159 :	0000000000010000;
	158 :	0000000000010000;
	157 :	0000000000001111;
	156 :	0000000000001111;
	155 :	0000000000001111;
	154 :	0000000000001111;
	153 :	0000000000001111;
	152 :	0000000000001111;
	151 :	0000000000001111;
	150 :	0000000000001111;
	149 :	0000000000001111;
	148 :	0000000000001111;
	147 :	0000000000001111;
	146 :	0000000000001111;
	145 :	0000000000001110;
	144 :	0000000000001110;
	143 :	0000000000001110;
	142 :	0000000000001110;
	141 :	0000000000001110;
	140 :	0000000000001110;
	139 :	0000000000001110;
	138 :	0000000000001110;
	137 :	0000000000001110;
	136 :	0000000000001110;
	135 :	0000000000001110;
	134 :	0000000000001110;
	133 :	0000000000001110;
	132 :	0000000000001101;
	131 :	0000000000001101;
	130 :	0000000000001101;
	129 :	0000000000001101;
	128 :	0000000000001101;
	127 :	0000000000001101;
	126 :	0000000000001101;
	125 :	0000000000001101;
	124 :	0000000000001101;
	123 :	0000000000001101;
	122 :	0000000000001101;
	121 :	0000000000001101;
	120 :	0000000000001101;
	119 :	0000000000001101;
	118 :	0000000000001100;
	117 :	0000000000001100;
	116 :	0000000000001100;
	115 :	0000000000001100;
	114 :	0000000000001100;
	113 :	0000000000001100;
	112 :	0000000000001100;
	111 :	0000000000001100;
	110 :	0000000000001100;
	109 :	0000000000001100;
	108 :	0000000000001100;
	107 :	0000000000001100;
	106 :	0000000000001100;
	105 :	0000000000001100;
	104 :	0000000000001100;
	103 :	0000000000001011;
	102 :	0000000000001011;
	101 :	0000000000001011;
	100 :	0000000000001011;
	99 :	0000000000001011;
	98 :	0000000000001011;
	97 :	0000000000001011;
	96 :	0000000000001011;
	95 :	0000000000001011;
	94 :	0000000000001011;
	93 :	0000000000001011;
	92 :	0000000000001011;
	91 :	0000000000001011;
	90 :	0000000000001011;
	89 :	0000000000001011;
	88 :	0000000000001011;
	87 :	0000000000001010;
	86 :	0000000000001010;
	85 :	0000000000001010;
	84 :	0000000000001010;
	83 :	0000000000001010;
	82 :	0000000000001010;
	81 :	0000000000001010;
	80 :	0000000000001010;
	79 :	0000000000001010;
	78 :	0000000000001010;
	77 :	0000000000001010;
	76 :	0000000000001010;
	75 :	0000000000001010;
	74 :	0000000000001010;
	73 :	0000000000001010;
	72 :	0000000000001010;
	71 :	0000000000001010;
	70 :	0000000000001010;
	69 :	0000000000001001;
	68 :	0000000000001001;
	67 :	0000000000001001;
	66 :	0000000000001001;
	65 :	0000000000001001;
	64 :	0000000000001001;
	63 :	0000000000001001;
	62 :	0000000000001001;
	61 :	0000000000001001;
	60 :	0000000000001001;
	59 :	0000000000001001;
	58 :	0000000000001001;
	57 :	0000000000001001;
	56 :	0000000000001001;
	55 :	0000000000001001;
	54 :	0000000000001001;
	53 :	0000000000001001;
	52 :	0000000000001001;
	51 :	0000000000001001;
	50 :	0000000000001001;
	49 :	0000000000001000;
	48 :	0000000000001000;
	47 :	0000000000001000;
	46 :	0000000000001000;
	45 :	0000000000001000;
	44 :	0000000000001000;
	43 :	0000000000001000;
	42 :	0000000000001000;
	41 :	0000000000001000;
	40 :	0000000000001000;
	39 :	0000000000001000;
	38 :	0000000000001000;
	37 :	0000000000001000;
	36 :	0000000000001000;
	35 :	0000000000001000;
	34 :	0000000000001000;
	33 :	0000000000001000;
	32 :	0000000000001000;
	31 :	0000000000001000;
	30 :	0000000000001000;
	29 :	0000000000000111;
	28 :	0000000000000111;
	27 :	0000000000000111;
	26 :	0000000000000110;
	25 :	0000000000000110;
	24 :	0000000000000110;
	23 :	0000000000000101;
	22 :	0000000000000101;
	21 :	0000000000000101;
	20 :	0000000000000101;
	19 :	0000000000000100;
	18 :	0000000000000100;
	17 :	0000000000000100;
	16 :	0000000000000100;
	15 :	0000000000000100;
	14 :	0000000000000100;
	13 :	0000000000000011;
	12 :	0000000000000011;
	11 :	0000000000000011;
	10 :	0000000000000011;
	9 :	0000000000000011;
	8 :	0000000000000011;
	7 :	0000000000000010;
	6 :	0000000000000010;
	5 :	0000000000000001;
	4 :	0000000000000001;
	3 :	0000000000000001;
	2 :	0000000000000001;
	1 :	0000000000000001;
	0 :	0000000000000000;
END;
